node {
  name: "global_step/Initializer/Const"
  op: "Const"
  attr {
    key: "_class"
    value {
      list {
        s: "loc:@global_step"
      }
    }
  }
  attr {
    key: "_output_shapes"
    value {
      list {
        shape {
        }
      }
    }
  }
  attr {
    key: "dtype"
    value {
      type: DT_INT64
    }
  }
  attr {
    key: "value"
    value {
      tensor {
        dtype: DT_INT64
        tensor_shape {
        }
        int64_val: 0
      }
    }
  }
}
node {
  name: "global_step"
  op: "VariableV2"
  attr {
    key: "_class"
    value {
      list {
        s: "loc:@global_step"
      }
    }
  }
  attr {
    key: "_output_shapes"
    value {
      list {
        shape {
        }
      }
    }
  }
  attr {
    key: "container"
    value {
      s: ""
    }
  }
  attr {
    key: "dtype"
    value {
      type: DT_INT64
    }
  }
  attr {
    key: "shape"
    value {
      shape {
      }
    }
  }
  attr {
    key: "shared_name"
    value {
      s: ""
    }
  }
}
node {
  name: "global_step/Assign"
  op: "Assign"
  input: "global_step"
  input: "global_step/Initializer/Const"
  attr {
    key: "T"
    value {
      type: DT_INT64
    }
  }
  attr {
    key: "_class"
    value {
      list {
        s: "loc:@global_step"
      }
    }
  }
  attr {
    key: "_output_shapes"
    value {
      list {
        shape {
        }
      }
    }
  }
  attr {
    key: "use_locking"
    value {
      b: true
    }
  }
  attr {
    key: "validate_shape"
    value {
      b: true
    }
  }
}
node {
  name: "global_step/read"
  op: "Identity"
  input: "global_step"
  attr {
    key: "T"
    value {
      type: DT_INT64
    }
  }
  attr {
    key: "_class"
    value {
      list {
        s: "loc:@global_step"
      }
    }
  }
  attr {
    key: "_output_shapes"
    value {
      list {
        shape {
        }
      }
    }
  }
}
node {
  name: "Const"
  op: "Const"
  attr {
    key: "_output_shapes"
    value {
      list {
        shape {
          dim {
            size: 400
          }
          dim {
            size: 100
          }
        }
      }
    }
  }
  attr {
    key: "dtype"
    value {
      type: DT_DOUBLE
    }
  }
  attr {
    key: "value"
    value {
      tensor {
        dtype: DT_DOUBLE
        tensor_shape {
          dim {
            size: 400
          }
          dim {
            size: 100
          }
        }
        tensor_content: "\326K\3521\025\314:?\241\346z\263Y\300&?I\251\034S\271\177\031?a\300\361:\306W\374>\007\340/\210\317\366\343>7\203%\364\036\253\322>\304\031L\327 \004\272>\024\342_h\375\302\245>|\356\007\220\272\323\223>u\225\252\211\236\242\321= z6\340\304 \343=#\317\333:\360\264\376=ue)C]K\014>\322\234\032\033\346\020%>\226Q\016\237\211\323A>\256\370\332*J\021X>+\234\355q\241)g>+8\253\261\271\253}>\303\204?_\247\333\230>\277>TvA\265\253>@\345eG^\033\303>+E\241i\321a\334><\353\206\261>\r\357>W\310\325a\251p\024?\337q9Y\2216#?u\032\220F\324\2216?RR\333f$\223=?\331\242f\006\270T;?\237N\3017\275j1?L\250k\307\2677$?O\027\234\220\237!\017?\3339\222\364\242\005\367>\341a\370\251C\215\337>\020\002\251#\266\036\310>C\261)\333\005\245\262>v\330n\274\332\351\242>\025\263HB\245@\236>l\207\222\377\307]\253>T`\r\243,\360\271>\246\034\037\322\300\261\325>\370.4\247\252\270\351>zsX\307Y\361\r?\320OR\245\317,!?\256\225n\312\224\2350?/\327\266\355\027!=?J\355~\241\252\342;?\364%\321\300\323\0274?\377q\0069w\335#?\323\257\310\330Z\320\020?\264\217\266\271\3340\366>\243y9\370\002i\337>R\001\261\212\027\013\321>9\235\216\253\0346\274>\260\002\270\342\3533\244>e\277\314#iB\235>\206\213\021?2\207\246>\302aR\253\362\210\270>\326{L\323%&\321>4\221\231@\317\200\352>\225\265\272*7\336\t?\245\307\004\276\255\021\036?$\344\245\2671\2760?*L%\234@\366;?w\031\316\023$k=?]\346\306\253-\2623?\217\006\223\332\276q%?[\242\214\2736P\021?\245\021\361\354\254\"\374>9\0104\001\324\370\346>F\016kS\035\225\317>\331\2536p_\226\270>\206\335Y59\376\252>!l\246\333|\275\235>D\271\036\306\237\007\241>\226\330\224\256\217#\265>\220\213>\225Q\374\310>\035\314\344\034\037\000\347>\002\320\301\337\243?\006?\004\251\311\202D\036\026?0\274/\261A\231*?\304\253\214\301\215\0277?\222-OwQ\233=?\214\314\253\360\335\2667?\331\240\013_\251\324+?\033*\212\3350m\026?y0\211\332aT\001?S\215\277\207*^\347>\2513\306\234A\315\326>gy\340\246\006\007\277>\030[F^\207\251\257>\270\362\225\022\250\301\236>\262;\210s\330 \242>\362 \211\301\260\177\264>JK\260\0130\250\305>5vW\223Y\273\335>\223\210b:\210\237\355>+\223\204y9N\031?\017\376O\n\253\024,?$!\226\"\202\2674?\271\330\304\216\222\240=?\001\202\323H\006d\332>\242&a\215QZ\304>oS\204\024\366L\255>\350\267\230%V\200\221>\241\366\336~\035\256~>\013\276\332\003\231\217d>\224\021O\te\275O>=\230b\333\\\001G>L34z\335\365Y>n\271J\306;~8?0\347\222\025a$&? \316!\002\332\217\030?\200f7\177\275`\366>D\341\035\270\373\271\347>}\344\r\230\005\332\320>U\370\246c\370L\240=\275\256\220SI\200\253=\177\343\030{6_\304=\232\014A\375\007\222\342=\\\271\277%V3\361=\350\217\001\350\017\367\013>\220\177\317V\023\277\037>a\014r\244\201U3>\347\000\"\263\234\214I>\242\024pch\310d>l\312;\r\255Mw>?\306\r/4\343\220>5\234!\336\260\323\242>\321$\240\001\233+\274>\2065\310%6\033\341>\201~#\341x\006\364>K>\302\231\262\000\022?Un\305\032K@!?\030\007-~\345y0?\311\2644$B\375:?@\217\255x@H=?5\375\367`\340\2704?\241\005w\022\237\325 ?wc\213\265\225\t\023?\206\353R\205\327\"\374>\357\220\"\326\231\247\351>c\372\341d\214\322\322>>\305\246\026\315\213\272>c\365\376\337\345\251\250>\261]X\024>\261\241>\213,\017\365z\377\260>\017Rl\231\273*\300>B0\323`A#\344>\t\245\207i\205\301\373>\220\314D#\020k\021?\257_\315\034\'j#?\244\030L\n}X1?\221\371\353\252\001\356;?\233\277u\260|\264:?\205\234\334s4k1?z\037\014`\240\347\033?\230\302\353P;X\021?\t\232Z\366\337v\370>\346\206(\030\007\311\340>\317@\017$\007\253\323>\0020\200\207d~\273>\023\2219\262\367A\244>p\254\032\326*5\243>\031\375O\027\250s\262>\351T,\236iY\323>\357\360\227\323\263\331\350>\331\320\335\004\237\007\002?\260O\324\242})\030?\210j\002d|>&?\351\376>H\351\3415??\332\357\372\325D=?c\220\263\333\227T9?\\U\345\255\207\3410?1T\306\336I\270\024?\263\007\352\314\'W\006?\"\301f^\035\346\367>^y\266N\035F\333>Zz\025Brj\306>\330\036\243\\O)\265>K\237&\364\230\030\242>R\334\355\\N\354\247>\307>u\244\203\003\263>V\311\350ZO\341\333>\307\325\214V\023\274\362>m{Q\207R\266\007?\243\020\2720\312\327\027?\231\214\303U\212\260&?)ML_Z\3226?\212\224(\231\0307=?n~\356h\314\2476?R \260\252\200\356,?\216a\370X\2025\027?\334\331]\026-\307\002?\1772\\X\266\027\351>\236\353\377=r\242\325>\354\230\230\257G\013\277>\327\3528\033q\346\251>0\276\331\371\321\025\242>\363\276\266\216]\343\251>\260\225Y!\034\362\267>\306\232u\300\341\274\205>\354\246\371\304Lg\237>}\353N*nT\256>\324\306&+>?\304>F/\321\376\374\362\337>\250\321\035$\032\262\362>1\317\336\013\365K\t??q\233\233\324~\032?\013};\033\'\206)?\355\321\021\371\272\2509?F\004J\242\364\263:?\251\340Ld\262\363,?\261\215\207\332\006i\037?\016y\223\373<\334\005?\206\n\210\\cl\361>C\373\350\261C\270\340>S\262\215\246#5\311>\007\004\363\345l%\262>\rZ\263\312tD\234>\240\2519\252G\333\224>\247bc\004Q\220\240>d\036L\020\206\314\263>\237\305\236\016=\377\310>[\356\266\324\242m\332>>\212\030\036\327\232\364>\250\020\364\217PJ\t?\305\2766\246\207\327\030?\3219n\332S\016,?\266\262S\030\333\027;?\t\004\213\002\223\2146?\034\371%U\365n)?t\230K\017d/\027?\321\345\333\177\031\177\005?\020\277\342\252-H\357>\232\204\357\026\202\352\334>\021U\262\003\001\025\306>\343\367\010#\031\221\256>\370}\2066@\243\240>,-\036o^\212\225>\344\"v\\G\226\234>\270\262i_\204-\264>\237\030g>\331\222\315>+\360\010\353\352\025\337>\330\250\276\033\367\316\366>\211\273Ps\321J\013?\336rV\365\331\215 ?E\221g_\327\337/?\213\3014t@\311=?\302\'@\031L|5?y\205\304|\213s+?M^\265\207\253\363\031?\304t\007u\253\035\007?\374\034\233\325\207.\360>t\354\357\334\215K\322>m+\324\211\326v\301>R\212\3412m\366\256>|\310n\343\324\035\235>\021tz!\0026\225>\031\030\034\'\306\026\242>+\275\266\007\360\312\267>\300/g\016\321\221\321>\256\237\223E\236\207\345>\335\306\270~\243\203\367>j\024S\377\021\345\014?\321W\347\370\251\316 ?\303\031:J/\0140?\240U\257\237!\376<?\326\200pw\216\3577?\306\303?o*\033,?\342#\254S\021~\032?\360&\272>5\206\004?s\016\335\252\323\257\353>\017\353\010\244\312X\334>\204#~\226xn\305>\322\t\266d\336\310\253>\375L\214\254f\300\231>\3278\234X\020w\225>\231t\305[=\017\241>\312\374\014l_\240\266>:\322\265\225\004\347\320>\376\207\177\327hv\344>\213\023>\374\311d\370>8\2733H\n\277\r?z\224\315\004u\202\034?9=\267\215\362X3?\032\372nm\354\366=?nf\3537\333h7?q\270\236).I*?*^\307\'\027\232\033?@\021`?;*\002?\2002~%\333)\352>2\005<\254)\344\321>~\370\374\233\276Q\302>\325\001#\2361\352\253>H\251\323\222L\234\230>\315\267\3324\177T\226>\343\272\371s\243]\245>\370\223\220U)`\262>\234\376\265\261N\341\310>\033\377\271\215,\327\352>s\t\342\370s\231p=\177\035U\2373ls=\036\324\013B\274y\213=h\265\236\202}x\242=\244H\226\205\313\214\262=@\222\256\335\237Y\321=\214g<x\301:\342=>[\371\361\225\203\370=?x\301~\037Y\024>4+\316\265\360\005$>yHR\356{n:>\241mo:!\266R>\272{z\262\023xg>\320I&\352T\371z>mC\020\016\263\360\223>\016\365qE\024L\256>R\276(\214\252\017\303>PC8\217\231\233\332>\254\370J\325\334\005\344>[\260)\273m\024\020?]\355{\224aB$?\254\2116O\365\3723?Y\320u\252\360f<?%\353\320\312Z\n=?q>\206\036\010_2?FR\321b\033\257!?\360\365\332\364\323\364\021?)\276:\032HX\375> 3\311\364\255\330\341>\270+\001\256\326\014\314>\224\261\362\240\211\240\261>8A\231\007\003:\243>\004E\022-a\331\235>\006\375\246q\267b\253>\033\005\206\221a?\300>\336\244\364\344\2170\324>\003\321\361\363\005\374\343>\217\020\234)\023)\014?E\331P\251\305\310\"?\t\376\017\321\302\0350?l\324\213\236\200\032<?\213\330+~H\037<?\355\272\034X\337\2773?\331\332DR\247$!?\347.k|\202<\020?\327~8\337\370\217\370>\215\222\t\n\034G\347>\322\343\243\343w\345\321>\273\374,Ghj\302>\n\217\300\342R\004\246>\225\203E1\250\016\236>\367\014\312q\322\010\251>\251\324S%36\267>\031\003\001\025\224\340\321>\374\010!\315\200\254\342>D?\336\363\035\032\016?\326=\372\363T\001\036?\260z\'\027\323W-?\341\233\014\250\223\2579?f\035\232\351\265\212<?P\316\234yc\3045?\225\345vJ\205\225&?\251O\332\324\003K\022?\215}\367\013t\267\375>\263U\355\247!k\357>\244\306{\353L\273\320>N\t>\253mj\302>TU\377kM\354\251>\352\270\253\310\307\257\235>\337\301%X2\277\240>\025\353|\237\036F\262>\361w\251\310\302\262\321>\242\331\020+\314\006\337>D\302\370\354\004{\t?9o\t\036\004\343\030?\243\221\r\361\376\344,?$\310\370\221\340\0026?\200\350\326\252\n\204=?+\233\200\253-\0038?\257X\364\222\003\347)?\332\201\251*S\"\025?\315\307\242T\323\304\000?\365`\2538\262l\361>F~\256\357\233\252\326> \220\336O\306\353\277>7\005\3770V\232\262>\232\003\024\255\263#\240>i\300\355\347M\t\241>\003f\250H\204\316\256>\024\t\263\342\362\353\303>\342X\275\213\014p\334>\337\331\276\375\"Z\360>\031\373\304\221\324\264\023?\014\nL\005\033f)?6\270\234|a\3404?\262F\023$0\237=?\325&\370\264\317l:?\356\312\344\347\201\307*?\036mM\tij\037?b\246\241Es\245\005?!T\216o\262\311\307>R\037\202\022T{\261>\300m\361\027\207\034\244>\323:n\333\374\254\222>\371s\204\2543V\320=\311\204y\316\320\212\352=\210P\034\224\022-\001>9\315j\010o.\023>\207\313\340\312k6,>u\307)+\247\345@>\031\354\346\315\314\024U>(\001\332n\254wn>6X\232n\005\277\203>\214\026&@2\302\227>\307+\351ck\255\265>\242\214\023\275\n\220\323>3\344\225r\206\211\357>\346\177\210\306\346%\001?\020\353\252\014\177\364\023?\363\247\031\323\267]\'?inE\254\331S8?\365d\210\251\265,=?\371\233q\r\010\231:?\235\325\212\204\244\2340?\261-O\253\223\340\031?\2600\342\217U\224\005?\251+}I\r\275\361>7\200\321?u@\334>\3116\270\364\363\301\310>\310\323\270\177\314\217\264>\003\256\203\312rq\242>\273\227\024\'\324\325\244>\234\224\347\352\365\005\270>q\022i\314\"\212\336>\326\273\251m\'\240\365>\277idu\224\005\007?\306\'|\300\272\013\033?c\351m@\324z,?\342\236\260\247^\2268?\326\350`\314\203*=?\231\211\257\246\274\2377?;W\000\245\364\000#?\245&\322$o\322\024?\037\316\311\304\223\312\005?\331N\221\320/\224\356>l\322}e\377\273\330>SV\336\335~P\270>\350\300r\276Ec\257>N$\231\313^<\242>\016*Mt\377H\254>Z(\354U\223?\315>\371z|\221\341N\346> \022\226\202c,\366>,\021\266\227}>\014?\262x\002\243\352\255$?V\347N\2314\3412?6\r8\\\351N;?\217>\2613\226\254;?}\302=L\300O2?\326TSm\302w#?^w\361t{\306\020?\311\026\021\354\357\205\372>\317\205V\373zh\341>\354\316\357<\031\007\322>\023?y\222\025T\276>\023\346;\307\345\207\247>y\032\201\233z\262\244>\"\254\3331bE\263>\317\360\214&KF\330>_+\"\313\235#\346>\004\214\032\260\003\264\376>w\03556\376\250\024?r\253m\232\r\203,?w\321\331\2723<6?Mf\020gI\345<?;\315q\233\323\3369?\235\260\327\236\021\254.?#\017S\223\036\352\035?\203\177/\321\301\236\006?\252\370\212\020\361~\365>!\367.\247v\204\341>\033\243\205\'M#\314>J_\231\222\022g\257>\346vZ\016\215\227\247>e\230\244J\256\024\245>\014\001\3349\021\320\267>*\326j,D\272\334>\0301\'\301\347\251\357> v_\317\307\355\010?\306\227>\252\224!\031?S\007\225n\261O\'?\021\3001^\350\3527?\357\021{_[\333<?N\344\026\302\351<7?t\355n1\275\315)?[\'\021\371\350\206\032?\t)\021\307\247\002\006?\317\177\210,\230\177\353>c4\304\273\314\331\326>(TX\364(\301\276>\'\247\003\236\037*\256=\221{g\334\205V\302=\254L\301AF#\340=\240\363\004\272\316;\365=1iB\306\177)\003>\n\r\232\030\272m\037>\310\371a\325FT0>\037\367\204\203/\265C>\2173\323_HGm>\257R\314\n\027\031\205>IZ\375b\254\227\236>\324\274\006:\211\242\256>i\310sq\244\250\302>p\210n)\210L\334>\272L\210-c6\360>w\357\221\177\031\016\001?[`\300\355\211I\037?)[w7\003:,? g\265\002\273\2537?\307\345\347\275\341\327;?z\211\235\035\362\0265?\353\265\372aEv\'?d0~~a8\023?/o7\025*c\004?\0346\301\t\346K\366>\034\337N<\234i\340>_P\206\271L3\312>Z\360\010\"06\301>U\240\234U\356\357\274>\251f\2377,B\315>dd\372\370Y\361\336>0\003\202\261\213m\370>\306\272x;\325\035\005?\'\303\217U\321,!?3f\360\000\241\2571?\200L\372(S\2109?JUL\276\223~:?H\350\327\206\360\2173?\n\307\321\014r\222!?AS\214-\021\375\021?\237U\252\260\365\300\373>,5\242\370\200V\363>\366\313\311\005\333\277\335>eB\266\266\224\006\316>\321wq$J[\276>\340vgg=\300\275>\023\005yc\272+\320>\247\327\223\033\243;\340>=\357\213\030=\331\376>\351~T\321 )\016?\226\312\236\007\'\332(?\2203\024\020YR2?A*<\333Z\221:?F\326\001\177\221\273;?\021\220\210N9R1?Af\020\215\207l ?5\030\244\274\024\022\r?\373\233\262\361)-\362>\265\336IR\255\307\356>\016BS\006\267Q\340>\021\220XW\236!\315>\3224\233c\310\246\273>\022\007\217\266\260\225\301>\033!X9\267k\324>t)Er?}\353>\"h\331\217\331\242\375>^\203\360\227\213:\020?\305\202\250jG\261%?\303\276h\376\350q4?\tL\2506\242\252;?\314\210\034*e\2129?\360\007l\277sl.?\307\304aP\037\266\"?\n\216\235A\002\316\005?\337\357\226\344\234G\366>8\036\302v4h\360>\215t3\274K\362\326>he\325L\356\206\302>\320\251fjUS\273>B4\252\335\310\205\302>\243\372\376q\364\021\325>\267\026\350\330\347\003\347>\216{\257X\247N\377>-\244(\375\225\333\025?\212\242\256&\'\361)?\340\370\014\030\212\2126?\307\036\264\302\262@<?\352\242\224\241\031/8?\251\350H\312\267\346)?\3036\372: 9\033?Y-n\324D\371\007?\365\212\252X/\373\360>\347\313\237\257\276\372\347>5\221\0230\347\375\325>C_tL\311\225\303>\177\207\341\312\003\013\273>\022\025\014)\343\223\303>\253\3616\2154_\334>\376\177G\332\254k\363>\241\373\353\323\353\265\n?e\371#\334\265w\302>\243\311\243\035\241\036\257>k\226By E\223>\202_\253\'RQ\204>L\342\232 \245>\205>m\362\304\264]\027\225>`\213\0373\360S\001>\354\330\261\310\375\034\026>|\372\244\272\020P+>\311\204\030\307\274\303D>\202\364}\322#\035^>\014A/bD\352l>\301\320ex\243\260\205>L\317\333\311\224M\223>\003oc\321\361l\261>\323\335\347P\240\322\303>Gh0\326\177\220\341>\245=\276\345\362\246\361>\266\201\335cMH\014?0h\370)\252\254\035?\023178\364\3655?O\023\203n.\002>?\320\020\230\301\205\0239?\335\023\354\260w\2130?&\332|{S\036\034?\2742\030^\210E\004?n\253\233\235\343\327\360>yA{\211/\"\337>n\3255\010\237,\306>\300\234\207\211^\327\261>f\275\320\263Yo\234>\271,O\364\310\230\227>T\341+I[\342\244>\321\263\257\207\266\215\272>\267\323\235\202\014\"\310>\202\260\007\034\357\324\350>9\260g\242\342\207\374>2\226\272\222\341|\021?0\034\276\270\217\203\035?\371\037\253\310\365\3538?\000L\333\214\303\340=?C\031\371\373\251\0105?\234E\020f\235\314$?\275;\232\217\205\305\027?\306\236\370K\247x\000?\301O\322\373\247\205\353>\251`\266E\026E\322>\325]\350\243\032$\277>\277\337\225\304N\262\245>)$\321\265.\022\232>\355\376\007\271\303\216\230>B.\253\206\014o\245>\243\263G\262*y\274>\3227mx\210}\327>\224~\271\npw\356>\361)\2336\215\307\372>\355\363yo\'\256\021?\007\001\374q\230\362%?\355\010\016\323\240\034;?ZN!\261O\253<?\263\002a\002\326\0351?\274\017\374\240\223r ?\010\334L\200\013\021\020?R-\205\336\010\030\375>\273\260\357\003\243\345\345>ZT\037\321\233\321\316>\031\240\321\322I\340\270>\327\272\372\001~6\247>\021\030P\260\305^\227>\306GE\260\352\340\234>/\210\\\332}\315\261>befT#Q\304>\024\034\225F\020i\333>|\033$\007\316\223\360>\226\273\343v\006\275\006?f\242\322R\211z ?f\320\001\210,H6?9\372w\336\213n<?@k\272\2750x9?z_\003\342\373%1?sA\002|\034m ?\377\361H\005u\035\016?Q\321~\035\357:\367>kh\022\222\306l\340>$\007\265\200\001\024\317>\213\377\320B{\241\263>\352\330\332d$\253\235>Zo4\345cu\227>hP\205\235\r\366\243>\337\032\034\016\220\\\265>_\246\233XH\"\322>\010\321\004\2111m\345>\017N\236/\215\005\377>\\Z\201\2206\364\020?l\300\323\222\242f\037?R\314z\262ZV9?\023\000\224\301$\210=?q1\303\326\032\0268?\256(\202\325y\363(?z\350p\365\376l\030?5\246\026\255\251\321\365>\371\n<n\177\003\337>+<1\005\036\\\315>`\304?\001\375\207\260>\030\305\360u\222\335\236>\'\253\356\264\0143\223>\333R[Fa\223\226>y\007\374N\267\242\243>\263\024\263y\237\310\274>Q\310\234\2765@\326>\250(h\243sF\346>i:\302.\202\035\373>e-\031\271\204T\022?\241.cT\001\016%?e/\211\271W&5?E\242dc\261\347=?\203\342\000\271U\021=?\237\317B\317\313f&?\033\362\240\367\233u\016?\252\210\177\357^\026\372>\237\360\210\361F\302\343>\227B\330\223\017\374\320>v\325]7}\342\275>9\331,\027\264\266\250>\350\330\340\037x\344\223>\312A<\257\271\024\223>\364 c\212\363\274\243>`\230\021ta\270\271>\360D\000@\3419\321>\264L[i\177\230\343>T\0200D\021O\372>\364\342\260\214zB\021?\271C#\354X\022(?\202\222\364\221\214\3444?eel\320\006\346<?vx\365\336`\337;?-\253\371\220\266\270)?U\230\347\272KO\023?d\367_\023\313Y\000?\267\013o\352#\230\352>\371~\307?\034\346\322>\373\023\257\177\322\325\300>LzX\020s\344\247>\034[.\243\253\347\230>B\201M\030\006\336\222>\177r\271\241 \006\237>\3348\221\000kl\256>\3633*H@\016\311>\261\377\3052\311\013\342>\002J\014\330\037X\364>\341P\254U\r\323\005?\307\252\335\273T^\034?\370;\001\302\177\2350?\030\026\365<\227\365;?\014\261S\032;r=?\310\352\016\305e\312)?\323\310&\217l\032\036?\273J\206h\207\263\007?\324N@\356\216\242\357>\243\242]po\366\333>\021\333(\212\237\257\303>\300\373\337\371.\350\256>\377\334\276\223\264\210\237>\220\034\226T0o\222>\300\212]\010\317\031\231>\213\330\312}\305\306\256>@\364\243\213\"C\302>q\312n^\306f\323>\223\2066\260\264\356\357>\032\010>(1J\003?\364\335\361\"\353\000\031?\326S\373\316\2058-?\266\336N\357\337u9?{Z;\235\330\350=?\221\221\266+\373\3228?\255X\256G\331\244!?\222\213\200?\2651\n?\225%W2\346\300\366>\010\221c\225o4\334>\013\342y\260\233\306\316>\216\255i\255\013\303\261>\345\326y;\214n\244>O[\032\001;p\222>2\177\354\2776\227\226>\267\247^\321\327\233\245>3B\231\335\177\334\301>j\251\024\303\005\350\324>5E;\305\302\361\343>=\212`@\367\217\000?\272*\346\354\365\357\023?\346\026\3227\342\317&?\255]\021\333\275\3455?\306NPC N>?\034\273\215U\352:9?X ,ta\216#?i2\2076\334O\013?\344\330W\023\352\"\374>\332o\370!P\262\350>\200\r\326\326\010\364\324>\032k\375\030\335\t\272>\005g\001\246\014#&?Vp\023\351\256%\022?&9\311\340\260\215\371>\177\303\270\246\230\240\337>\246\371\207S\372\266\211=\355\263\316\210.\324\245=\234\266AMS\312\267=F\247\026p_)\315=;\307\004\306\210\220\342=\312\375H7L\213\372=\350\361r\275\316\244\020>u\365\275\t\230\271\">\023\225-^\336vA>l\200)*LeQ>\202b\033\340j\203j>\331\305/|h\027}>\355\360\033\017\351\023\225>O\203\021C\367\312\251>5u\200\207\365\351\277>\221q\312\226\002\177\330>\234\333\277\031\332\033\360>#\331[\323B\016\021?\021ye\316<\300%?\373\360\n\204\230\3572??M\261f\336n=?OE2\244\211R;?\023\371\276>\265\2361?!\273\306Cl\242!?\303\013\205\357\335\031\t?\032\305\261#\"\234\364>\244\345?\332-W\343>_rC\227\216-\313>E\207\324\252\305\013\262>?:\333bN\333\243>4\'\231\272\274\267\235>\005\231\013\314O\342\252>\237?\030\321\\{\266>Ls\031\304\201\324\326>\220aK\335\204~\350>\223\270UjK\203\010?\025\014+\315qx&?x39A\032%3?\355\313\244u\363\247;?\210\260:WL%<?\361\241KF\326:3?\314qW\242\2564#?[u\316\r{\271\016?1\0244\'\336\030\371> \261\253\007S\354\341>q\251\304\270\365\365\314>OE\372\374\023\357\266>#\311\200\357Vz\245>\214\324.{\265\216\235>\'\016\003m\270\030\252>Hd\261\260X\366\267>\230\256Kmp3\321>\\\\&\223\tS\347>\300J\026\004\373F\t?\317\261\001_\300\214\"?)\272k\366\\v,?\250\264\210\267\016A9?r\020\232\253\236\002=?\304\332\351\226+L6?tw\037\331Hi)?\272\307RE\320\n\030?\034&\332\300\037\266\000?$\001W\362\033\036\351>\234\333\265\312\241\025\323>dH\330U\244\000\302>\204\256\266t\265\375\253>\275@\221b\300\261\235>Gg\213\207O\213\242>K\312\020\240\022\211\264>\376Q\363J\364\004\307>\305\013\235\376bP\334>\231V.\303I\325\362>e(7H3W\032?\217I\350\244\033\212.?\347g\216\206\221\2567?\351k\300\030H\236=?Q\345\323QY\0147?\003\362\325\014\237\355)?\244\014\235\320\276\"\024?\325o\030\347\373\320\003?\321g\025=\307n\361>\317\225\365\211=/\326>\307\223\010\331\334\371\304>\240\re\002\375\370\254>{7s^w\033\237>^A\363\266(\225\241>\210\r\362\344\346\334\264>\224\001\002\001\264\241\310>\021\327@D\260\017\341>\351T\343\340\304\322\362>q\304\262\303\214T\027?\331\323\212Z\035\000*?x\276\240<H,6?}\366+y\212\177=?.\036n^\352\2667?\322c\343\305.\0330?\024f\236\033]A\341>U>\265_z\272\315>Fl\250g\365d\260>\341\303\351x|\215\227>\273\346\3709\375\177v>j\232\244\374\213\324c>%\201W=\255\337I>\2063\375F\034\006=>\276\241\320\3512N:>\223\303X\355\244>T>\363\327\023D\335\037b>C\271F\334\277\377\006?\272\372\333\370%\345\364>\327g\204\310\0130\332>\014\350h\002\203\371\233=\024\374\025\177\\X\240=:\237J\302E`\270=kfP\240W\341\311=0\270[\365G\334\342=\337 \004A\355a\374=(\217\2437Y.\r>H\245TX\355\373#>\341MYH4\2456>\031\006\270\302?\032P>FW\245\257\210\350g>\007\251\027\325\036\376\200>\373\230\277\346\224\275\223>\352  ?f\324\250>L\235$\243D\373\304>>nQ\032\033`\335>\217\242\363\010U\006\347>\031x_\351tj\003?\262\210\"`\335\327\026?\362\"%\320\346G)?\205\307\217\000\372\251=?sV\314S\361\3539?\261\321 c\227>/?\271\000h\033\222\027 ?\373\021(\210\360\255\n?\366\220\353\256\360\r\366>\376\347N\365\213\272\335>\332\354\005\272\342\233\313>\227\340(\202\227\325\271>\230\210E\002 \204\243>\376\016\254\205)E\227>\2602\346\361\360:\237>\235\211\366c\224\216\265>\226\344~\206 \221\303>\326\001\026\035\021]\334>\304\345\326_\036z\355>\205\010\334\373t\267\014?/\352\231\200z\226\031?\260\202\357N\036y+?aG\256\236!\002>?\024[\316\261\"2;?\251\037\321R\260\316)?\031z\303\216+,\035?T>wi\273d\t?\305z4\233\035\350\354>aol\332&\260\335>\262v\231\332w\002\312>\267\205\217x\254\022\262>\251Yn`>\342\237>\376\243S\256\352\\\227>:1\252\306\031\300\240>\256\004\245\030tq\265>\362\213~\335\241\034\321>G\305\316\366wA\341>1\024\321>3\340\371>\021\372/I\305\204\020?\305\225\035\322\227\223#?9\226\325\327R\253;?D\373\300\376\276\n>?\202\351,jlV5?$~\212&\366s*?\266u\262\003\207\t\031?Y^\257\3021\213\001?z\356b.\000f\352>\007\202#wO\225\323>\333\352\330\230\365\361\272>!\205\314\025\\\243\257>&\2207\270\203\016\230>\313WL1w\271\232>.\034F\367\256\330\247>\340\243\243\271\\\363\276>,\266\257\334\241\361\325>|\223\261\006\251\271\354>*\313q\337\025O\000?\330f\267\n\350\207\023?\227\210\233\277]\326\'?\375qC\236\347\207<?zo\3644\250y<?\264\230\311N\314?2?]7+i\\\031 ?\315sRk\210\326\r?\320\234\021Tw\304\366>kiR\227\372\205\342>\264\232W\302\032\244\315>\034\361\374I\230\337\271>\271\0066\351y;\244>\035\220\277\255\206\222\267>Wc\312\251~\232\240> \230cQ\023I\207>Ip\331N\304\221D?.C\013\374\224\311B?\272\301\216\000O\3155?\301\327\2179S\274&?\220\276\253f\333\216\020?\216o\235m\233V\001?\362J\344\332\347\206\343>\363\016t\003>\366\321>\253%O\007\327I\264>\010Z\007\007\213r\236>]ec\336w&\312=\2277\323q\003\261\325=\312\342\220n\261P\350=v\321\026\3576\001\001>h\256w\020\017\036\035>\250\037L\020\002\334->\277\315\332\272\251?@>\214a\324|--W>\036n\214\035\300Kr>\267B\371\204Y\215\202>S\325J<G\346\231>\1779\350`\215\230\264>\351\004\032\021Z\"\307>\204c1\226L\202\340>i\255\342)^\325\361>\227\213\220{\207{\r?\231\213[\227\n\275\037?\202\022q3\270\274/?\255\206 cC\3008?\323\224\th+P>?Y[\224:\347F6?\350\352X,\3109\037?\305\201<\256\327\023\n?wC\364\020M\213\362>\323\210t\304\016~\335>\231,\300Wd\025\310>\306\262fM{\035\262>$\246%\013g\023\240>\362:*\273\251$\222>\036\272\342\2448\317\226>\364,\323\311(\323\247>F\361\222,l\214\301>\240\001(\220\r\353\333>\304\267\303\216\314\n\345>\315\350f\352=\371\374>\013\336\023\220\323\265\025?c\302$\365\020\240+?[\203\322\3259\2143?\006/\201\010\2506>?\234\334\227\247\331\010:?^\272\n\264\334\355\"?C0\374\330w\226\r?tbkx\277\337\365>_/\310\274\371\005\345>\004}\261\206b=\314>\\\311\264-\177\021\270>\345K\013*\314\361\244>\233\214\310\256\343i\222>\215\271\262Dp1\225>&Z\245\023\342\357\237>\336Q\377\311\316?\265>\307\2274|h\206\305>\r\3409D\227\020\345>D\353\033\341@T\374>\024PT\372\373O\017? e\301k\272* ?e\376}\373^\2323?z$\357\213\303,=?\227t\263\314\266\'=?m2-\310\'\r&?\023\206\322\\\007\353\032?\025\344}\361\320\006\375>*X\243\021C,\345>1\327\236q`L\323>I<\005\345\361\344\300>\030 \327\310hS\247>u\035-\227\265%\227>\r\013\360E2\337\221>\367\227_u\037\360\237>\247`\337\224K\306\262>\2549\241\320\275\341\312>\024\316\367\267\007\016\343>\326\032?1\316=\366>Z\236%\240\342Z\007?V_l\210\246\216\033?T\367\3673\350\222/?\263\252\220\364e\327;?\017#}\255\254]>?Y\317)\006\361c6?\313m\303~\206\204 ?\241\361\373\350CZ\005?\303z\344\276\242\232\352>S\331\216}7\272\331>\317\004\262V\210$\301>\322\354\203\325g\237\260>\017\207\215\266a\242\227>T\344\"\271\221\033\222>\252\262N\321\227\304\206=\312y#K\371C\240=\0007<QKv\263=\277\341\305\207\n\372\300=^;\005w\314G\324=\304\356\355\300D0\347=\255\303\t\337n\033\376=\377\3724\324\333\t\025>\326\023\320\324t7)>\201U\241\372\226\375B>}1\302\251\223\273R>E\361D\210\364\024o>\347;f\014\211\272\205>N\003\357\245\304 \235>\035\332i\017\371\207\257>\205\341\227\253\206d\303>\336\0321U\242\007\326>\201\362@G\017A\362>J\241%n\3147\002?\233gv\236$\341\035?0%\323\333q\302-?\254\355f\001\234P7?*\373\343\370\253(<?}Y\024\333\372=+?\221fX\210y[\034?%.\n\001}\341\016?\233\2657\246\034\n\365>\206\006\265+,h\340>\353\264\207\364\227u\310>u4\236\337c8\264>*\205\203\203\370\232\243>\333\254tZ\240\325\225>\271s\216\tU\007\240>\254N\202\323\222b\262>\304\235\270R\316\252\310>\030V\364\355+O\343>\200J%g3`\361>\360\t\273\274\301\252\005?A\021\371\204\267\376\032?R\002\024\256J\3530?,N\255\227\224\336=?\220\354\3456\323\3058?}\037\254{`\262-?\210\356\275\254\306N\027?8U\t5!{\006?\227\325\223\013\211\327\357>\030\246\004\240\024\371\327>\273\036\370\277\017W\303>Z\360\0308]\233\261>\221\225\211\347\023\257\233>u\027\325\242.\334\225>\201\202\033\363\3267\242>{\340\366/n\352\267>p\211^vK\215\306>\230=c2%\212\337>\3061\364f\371\267\370>\252\030\217i*M\013?\'\036\310\006\035\004 ?1\374\3416\225j0?\346\350\305\231\347+>?\305\\\373{\024\0358?)FL\321CA,?\t\300\346\362\332\001\031?f\202\264\353D\177\005?S\343 o\343:\354>w\'IzQ`\332> $\360<\241\225\301>\r\260O{\271^\251>\2579\214e\235\276\233>O\031x\246\341\261\226>\320<2m\226v\243>\321_\207\036\3101\263>\240\234)u\225,\320>U2F\255qh\336>\357B\237s>\225\376>\216\316\253\226\216\376\022?\247t\226\367\237\016&?e\365~D\260\2153?\256]\024\032\377Q=?x\252\200\245h\3616?\231\363\247\220Y\327$?\270\335\007i\213\306\024? n\261\225\246\031\002?K\234\331y4>\352>\275\224&\275\344|\322>\344\213q\2649O\303>\001\217|(\311\317\255>V\307:\014\210\001\233>\026\300\240*5\327\226>\265\332\266dai\251>a^\005\226\354V\300>\335\323,\375\254V\320>>`\002\302\330z\350>(\311Y4g\246\371>\257\326\365\325\020\371\016?\344\3019]0\"!?\004\364\371\324M45?\006<\230\003\363\">?Mx\207nu~5?\3715be\263#&?>\031\235\366\345\257\'?\224\005}\377Le4?9+e\250\214\213=?\330m\342\276\003\237>?E@\026\024\354\0343?\265f\377\033]d\036?3\266\\\226\213\272\023?\252<\243I\007\343\367>h\0369\353*L\340>k9q\014{\304\306>\036j_\363c\234\272>\335,\002H\351V\244>J\017\251\316-\262\222>\020\204\243\212\342\271\222>l\316\025S\2760\217>\207\302\241\013\003|\242>=\222\344\\5\337\270>:\233\216\022\006\332\320>\244\302\243?\336\022\342><\005\001\256\365\376\371>\265\323\315x\227\322\023?2`i\357\013m&?\340\026D\246\263\2274?\317\305\2073\305\277>?R\372N\217YB>?>\tf\330\371\0043??Y\300\034v\226#?\271\260\033\331.\355\020?P^\250T\000\322\372>\340\321\031\277\357!\344>+\326\023\210\255\007\313>\002e\363\376s\232\271>\234\355\344\256-J\246>?\332%X\343\235\223>\231\347\2114\310\325\220>^\237\276\2672&\221>\321|\275\347U\313\242>v\320\004O\217\330\266>\222^g\225\373\033\317>hIrda\277\342>9\277\271e5\034\367>U\353X>\204\212\021?o\321og\221\276$?p\331\007{\323b3?\273\242\221\270\033\263>?\025\254\315\342\306\177??\0276\344\221S\3057?\013\343\256c\217\323%?\266,K\237\240\364\022?>\244).\'q\373>M\0271\204:\002\342>&\267iA\334^\327>L\341\212a\202\277\272>\242\207$\225T\177\251>\005\251\266zF\370\226>\202\2624\233\343\274\217>_>j\304\253\016\211>\237 d\214\341\022\242>W\031T4KA\265>\372|\021+\347\326\313>3\263\226\272i\330\342>\007or\021R`\370>\276\366\303\tg\"\020?\210\265\310\274\212\320\034?\335 wT\352\"0?\305\342\235\034;\276=?n\270b\244\217\265>?2\370\227\004\327v5?\247W`\030\2414#?\361\000fi\033\275\022?E\216\224\322r\236\376>\260\030\244\333ji\353>\353w\201\034\000f\320>N\016\'\201\270;\273>\364h\301Y\005\025\255>\250\233\300\216/\t\225>]\245\220gXe\220>\365\261Z\323oW\220>I\200\000\303*`\240>:D\307\353\335\014\263>\342e]K\256Z\316>\347\357\3330\036\334\333>\246\220\017\242M\257\370>\327\336\372\213\006\013\010?1\276\021\337\272\264#?\212\021\005\006\303\2201?x\274\325\247\313M<?\016\353\250\023\327\241??>P\211\255\360f6?\257\177\0233\001\006(?\030\353h\017\007\007\026?\326\356k\222\264E\001?\007\325\016\354\264\360\353> 1\372@\027\266\323>9k\226#!T\300>Wd\377\253M+\252>V!\353\020-\342\232>\245mB#\333\246\217>\252_\031s\373\000\210>\256\035I7\362\230\241>O\206:2\270\324\250>\241\006\363b\340)\214>^\240\326\221\360\023{>b|T\013\\*^>\177}\234\236\021XE>\215\223\344N2\004C>Z$s\r.\336K>H\235\t\217NKd>\316\202\013\214F\215}>Z\347\361\332\316o\220>\256\026Ot\\T\251>\224<\032\037\233?\305>\243h\203\272\270}\356>\252/\243\347\237\333\204=C]#\323(\311\240=6\214\247`\006[\261=\244l)J\\\372\310=\017\365\220,O\376\342=^\3116\302\346\004\363=\213\342\007\244\364\272\021>5\033\n\t\'\r)>\001\326\256\177s\2218>\243\3061\336\004\372H>\277\320\356\014\375\244a>h]\301\365{\027{>\332A\266\353\350\355\223>\236\002a,\240\254\242>\362\325\355\271j\253\271>\330\215\013O*\276\327>\353\277v\276\271\361\345>\274\016\263\016\354\376\r?#3UE\375\240 ?\016\245\024\270\376\3322?\343\3128\240\345\t:?3\354\020b\020\\<?\353\253\374\374\375\2342?4\032\244Zsu!?\374\210\004\331\033j\r?\321\r\1779\021\201\372>\255\201\307\316?\241\344>\261\3470\371 \272\320> \033\030\007B\313\271>\235y\326%\320&\250>\266\032T\306\345\322\235>,j \320\026\263\250>(\202\344\317\322\"\266>\"s\001\257\263\226\322>P\255\341\234|\261\342>q\220\342\217D\366\n?R\2461@GO\"?H\254+\306l\0370?\326\325\373\003\337\327;?\331P\305q\321I<?Q\260\205\302\241\2332?\337\220K\232x*&?t \261\254\221\261\020?[\014\275\325\013\331\001?\305\373\262\004\250\225\350>\000~\277\250\372$\322>\326\333\212\024\336N\302>\224\347\324\223\313\000\247>L.\312E\367\025\236>\311\231\020;\021\353\243>\"\306\311B\013\222\267>\022t\'\013\315\035\315>\021A\2212>s\343>\240\345\240#\345\272\007?P\377\275\231\267$\033?e\316P\270\323\022.?\246[\211}\237\347:?\370\004@\273\371\\=?\352f1\243!\0035?\312\266\211z\314\332&?O\343\353\n\032\250\034?AW\223L\317\275\000?\343\274\t\017z\305\350>\teA\375Y\"\324>\360`\241\264mr\271>\237P\241\310\r\311\253>HX\367\250\313\023\237>\356\264{\321\016\316\242>\231~\306eRk\266>\234\311}6V\r\310>HM\344\t\353k\342>\204S\240\301!\013\004?J\243r?\241\347\025?\206D\374\205\013\303\'?\r\355\260\274\273\3714?\366\025\016:\244\205=?:\335FH`y3?\352\030D\247\366/*?\345n\207\352~\271\030?\242\306q\234\357\365\001?\217X\204\354\317p\353>\364\374\272\220\371\376\332>\004\331\021\355\363\312\307>\244tp_\252\006\254>\032\2235-NY\237>\037QN\346\316\216\242>\177!\206Y^\264\261>O\217;o\323\322&?\267\330#o\317@A?\311!\017\002\263\255H?\022\027\374\240\370\251M?\363]`\255\316\354E?\236\317\361\357%74?\215\374\032\365\370d\030?\207\317O\213\020\305\375>\177\022\355Xr\220\360>%A\357\002\273\331\312>o\355G\3744\240\303>\247p\200j\314\200\242>ki+\254\335\200\214>m\363m\207\022\002o>-d\002\302jx[>QJ\323\t\340\022K>\2659\345\030%oM>\231\352?:a\"\\>\353Q\331\343\254\306s>\322\315\337\324\303E\222><\211\333\224\332\372\270>[Q\335\004\274:\314>\022\373\373*i\207\372>BU;/+\224\332>\373l.EI\316\313>;\340_\302\035p\260>p\246N\3440(\241>O`\255{\314\217\220>n\265Sm\265\266\224>:\371\376\030\212q\244>C\240\203/m\255\274>\216\304|\362\361\213\304>\277\3659eC\304\332>\n$\361\232D\210\364>\304\365O\005\336\322\013?tI\257S\315\272K>t.\224\230\222hd>%c.\262\332ru>8#\207g\037\227\217>.\2318\017\241\013\251>\333:\355\2744f\320>\330\376\013\312a\312\342>1xV\233Q\013\365>\317\271s\343J\222\r?$\257\206\016\353| ?\377\374\351\254\375P2?\346F\346\222Ph<?\351\3456\035#@<?2eDL\331\0262?q\226\375G<D ?^K;\223)i\013?z\032\276\023>\317\366>\273\337>\004\330\201\342>]\357?T\270@\320>\004=\350\317><\266>\031\267\370\234\222`\243>\026\254\000\323vB\242>\374\036mh\224\327\250>\003\310\246\036\370\222\322>>X\202\370\"\346\351>\332\241\205|\312K\000?\317\022\300\271\371d\027?\\\314\311\216\tH(?\321\211\326\031\225\2265?\273\263\3647\345\331<?\355\226\332\346%$:??.2\351\021\2050?\0255\251\343\026\344\034?\215\253\213\330\033\310\t?C\255;\223\266\302\364>\372\354\\\27363\336>\264\360\235\325\035\031\310>?;\202\254vn\265>_-p\245\322\223\244>?\253\272\337\244\327\245>\352\224d\232\017Z\264>\006\t\220\3534l\332>w(K\204\024\377\362>\237\261j\n\3435\004?\020\257C\n\230w\034?\351`\222\265\341\374+?w\335n\222\332x6?\251\010aO),=?\365\321r\323\360\3536?\311s\334\276\334t)?\223\214(m\256\353\034?\224\023r\177\243r\375>\312o\354#\022k\361>\303\331Q\034\375\206\325>V(I$3\203\301>F\345\'\302\340\333\252>\026\247\234\202,<\242>\347|\340\334u\320\246>\365M\000SE\305\270>\241\233V\026j\254\341>\256\373\243F\371\260\361>>X\373\017\374\325\013?\262g\023{\363\"\033?v\n\3222\307\0140?6\330\234d\275j:?\333\361o\330O\332\005?\361\330\350\256\204m!?\017y\300C\357\n2?\214\226\240U\267\005A?\350\003__H\367D?\361N\341\273\360qB?\360+\344(\245\233=?\277-\014\023\364\365-?\312\332O\253\010\213\024?0[\260\350#\247\374>\300N\240\336t\220\347>D\270\272W(\036\323>\257F\3469\3472\274>\224T\311\270\261/\242>\304fj\'2\375\213>@w\240\274|P\177>\357Cz\031\007O\200>\236\237\332!\343\361\214>?\250\203}Xc\246>\013\007i\353;\016\270>.\204\375\337\307\357\324>=]D\022\216\272\350>\253\\\215V\376;H>.3\273\265e\354a>\013\000\022\357I\002w>\207\211!\355\231t\211>\0107\302\277\210\270\243>\365(\200E\034\373\271>4h\250\215=8\314>\261\316\375ly-\352>\352\242\004\034##\366>\177\202z\372\222\020\020?\013D\010\255_\\$?K.\377\303\242\3672?\303rbAa\200=?[\200>\211~B=?\216 \307PJ\230*?n+H\335\366\003\026?\007\254A5\302n\002?8\031\247\023\232\355\356>:\262L\310R\251\323>\033\255w\326\315C\300>\003#>\252\342u\244>)\"`F\333\362\233>\257\276\213_A(\222>\323\220\000\207@F\236>\224\354E\2378\024\264> \316\303\344\320\020\311>\305%\224|X\374\337>2\001@!y\217\360>\024a\320\273)\231\007?\320\205]\334*- ?yq\200\'_\2551?\330=\337\316\255d9?\222\360\211;\262\316=?y\313\345\341\362\214.?\233\277\266OO1\027?\353\326\301\217\005\375\006?;\034\227sr\372\356>\225\327k\262i\336\333>\360[[\360\036\244\312>\242M\322\032\331V\247>\370TzA(C\240>5,\241\315\2567\222>!,\200\216\277\302\240>\026\303(\226>]\257>\315\331\002\204J\234\306>\367LM-\364\317\334>5\207\364\270ja\363>\010\n`\'\225\255\004?\313n^l\326J\027?\341T.\273\313F,?\267\363S\220e);?\324\324#Y\343{>?\371\355v\036\210\0109?d\366\355`\325\033!?\221\323s/\274e\006?\320\216=}!B\362>+\344\310\213\013\306\340>\263&\245*\345\033\320>\316\013\217\000~\271\271>32hdB\010\236>\214\3630\374\">\222>\275\222\254!QP\226>\0045B3\204O\253>\364\260\221_\231\033\302>S\243\003D4\262\324>jue\352\247`\353>\216\354]\304V\344\377>\271\266\353\374\031y\020?\314}1\234,\214*?\260\345\214\241\320\3476?(\373\235\024zr>?Z\375\252\253\262\337;?\220\2047\347\"\341!?\360\314Z\274\332\"\016?b\233\332\263hz\373>\331\323\360nB_\347>qo\005&Q{\315>8>Mbh\023\301>\206\t\261\276\r\273\205>5\255\275(R\252\227>/M\236x\n|\256>\215w\357\022\315\213\310>\025\004\3344;\010\334>V\343&\251\017-\363>G\027\377P\314\254\005?\223\375\220P\356\207\030?H\246\223\212\371i(?\312\027\2436\341\337=?\257X_\344\035\321;?\243\020&\004\255./?\3204\271H\020\371 ?\235CK\324\'\255\t?1a\377!\312\323\362>J\350.\244`\"\336>\326\344\375\\\334\177\311>\320V\332\376\271\246\263>r\030\216\311\362q\241>\001\224\325\307\227\232\227>\027\236\021\2010\035\241>~\372)`\002)\261>C\236\344\340\034p\310>\027`^\353xg\341>1d\337*\372N\365>\2468\353\304\215\017\021?\210W\332\204\372E\"?E\345\315\255\233\0208?\306+\336\003f\365=?\360qf\273\277M:?c\364U\377\330\231)?\371\335\274\263\226\021\032?\2179\274\234mG\004?\325\261\201y\316\036\353>g\010\353\025M\335\327>\306\202\213\262\340\234\277>\226\0224\255S\200\253>\356@\261v\245\022\234>D\\\314j\266\266\227>T\016>\013B\007\250>\240\340\204\260\337\320\271>\341D\325\207V\037\326>\020<\211\260\340\252\345>\024\311\313\342\"\360\002?$\364\373\254\206k\021?\362\036F\205\036\013\'?{\231\032\330\027\273<?\315\3713\242\275V=?\215\303\027N\343\3403?t\2001H\207\260#?D\215\000\247\210\201\021?\375[\307\372B\257\375>\373\017{V\241P\347>\372\376I\270\355\300\321>\2110\027N\022\306\275>y\317\373{[J\246>E\361/\200 \251\231>\230\376K\273Z\254\235>\367\342C\010\020\306\253>\334\271\226\266]\321\300>\031r\3218\330\321\324>\276\"\261\222\275[\355>\235@M\000h\032\003?\250UAt\254\231\026?F/\022\231\324G-?VK\230c<\003=?\200\343\313\326D\323;?f/o\002\320\341/?A\346\271\206\312v!?\310\005\037V\255\341\020?\363\025Df\232y\360>$\314Ol\324\321\340>\313\225\352\267\320\315\310>\331/\326>\214U\271>\000\200\361T\037-\235>\316Oy\013j/\227>\237}3\0227K\235>\270\227\014\333\215j\266>Y\'\312\031\036o\313>G\3327?\2642\332>@dt+\205\275\363>\226F(\354\177\223\020?E\211:A\0252\035?(B\027\2572\340.?\353l\356ys\017>?\274\323\251\216\222\345:?\027\024C,\312\261)?\355\273CG1X\035?Wc\327\0211\021\003?\220XM\206JC\355>]\203yu\266\346\332>k\030E@eP\304>\354\277\022\035\035\347\261>x,\005N$@\234>\265\035\335\206\335|\227>\361n.s\361\271\244>\230]W$\345\032\267>\311\307>~\377q\317>\314\026}\001\213@\346>\250\001\266\000\330\267\365>\353C\255\300\353z\006?\025\317;n\016|\031?\220\237\371\343\233\021#?h3%\010)\2745?I\203/$\214\006D?esP\234\317\371A?\271\254\2205e\023;?Z\244O\'\036\002!?\310\337\375\000\213\245\023?\217\025\337\214K\251\361>q\345\362\007\237\251\340>~\354\334\324\333\300\312>\312\232\241UT\261\263>\320\312|d*\006\240>\305\303(\265\243\331\216>\274k\242o\305\345\212>C\346]\353\211\204\227>\262\373\352\322K\005\263>\324\036\346 \022)\311>\005\277\252U\216 \340>\205\273\022\004Q\306\367>Hi\025EQ~\370>O\215%\354\337\336\022?\276X\300\305\226\344a>&$`x{\343u>\000\257a\203\013\354\223>rR<\211\262\020\245>\242\201\261\002\217\003\270>cc\345l\237R\322>\356\305\342\252~\315\345>T`\245\212\253\324\t?\022\n9\377\353\031\036?=y\022 \256\3403?/\222Zj\266\202:?\340V\013L1\251<?\270\354_*.\2633?%\204D\346#w#?\0357\217g/\314\013?\231:\201\262 \220\374>\361\304U~\206\010\353>\305 2\"\220t\321>5\363\375l\005n\266>y%\003\217O\272\246>\264\2626\002\246\270\235>\365\336\260\351Z*\251>\324\335\352\014o\'\264>\211\364\351(!w\320>\273\242V\326/\020\340>D\037\260}\222\315\004?]\262>C\007\337\036?\260n \221\241\001/?\213\n\325p\200\304:?\037\007<Z\276\274<?\370U\013r|M6?\370\316\036\253\261\336&?R\321*\271\307$\022?L\210\233\r\373\336\000?\253$\370g68\351>DH\346\304\324&\321>\022\267\216@\335\035\272>\211s?\346/0\245>\253y\203H\266\270\235>>\306\036o\213c\245>&\353\006\025RY\266>\3369\277\204U\'\313>\013\002\325<\307k\343>a\326\226:\202F\004?u_\013\022\313\337\026?\322\301)\327\023\310*?\035\032F\210e<9??\241ZZTr=?\216}]bl\3342?a9S[\311^)?\201\007\216\255\304\346\030?\257\342\220\376\"\357\002?w4\323(\213)\356>\001\003\010\325s\337\324>\3145\211\257\254>\302>\243\212~+\3728\260>.I\303\352\225z\240>\274\320\\\377\325M\240>0\333\370\276\r\354\262>a\211L\276Z\251\302>4sB\216\246\013\340>\010v \031\322@\002?o!\204\340\364A\025?\334mdM\252\346+?}\316\3001\224\2756?\317\'\215N\223j=?\261\366\222\202\032!9?s\273O\265\007x\'?\027E\236\363\277Y\025?\245\237\032\323W\270\001?\030\360\276@\036@\356>\206*\032A\346\272\330>P\263.\343\252\031\310>\016\"\024\212`!\255>\304}\207\017\352v\240>\304z\322\033\260\364\235>\277\211\003\256\272\245\264>\202 jJ\324\232\020?\207\242gP\316\354\025?\220A8\"\246\035,?\226,\220\034\210\356>?\032\220)9\\\324C?\357\314\253\235j\337B?\021\2240[\221-6?\336go\274\344\212$?\243\257r\253l@\016?6\223\260x\204V\375>\212\202\031\304!\341\337>\340X\361\313;\024\314>\254\"\000\035k\317\257>%\001T\317\251$\232>53\353Y\317\244\211>F\013\226\251\377=\207>\334d\347~\027L\224>\376\215\324\\\032\033\244>6\362\216\345#\376\302>Y\244\323^d\372\327>\215\220\014\317\024R\352>\306\374\300\375 :\004?\260w\020\374\r\331\016?\315\342\311\216w\303!?>\242\003A\230\2126?\347K3|\005\306B?\374\005\036 [,D?\227\t\206\342;\240\262>\332\n\017@=*\302>\221s}\320\246\373\325>\2737\013\266\360\005\361>\240\344X\t#d\002?a\343\321\004;d+?\345AS\001\306M4?P\272\327\216m\000=?\3647\034q8\3367?G\236\202;\3652-?\354\222\021F\003\300\033?\337\346\255\203\226\265\005?\246\0368hc[\365>\332\241o{l\036\342>\314\366\342\0261U\306>\242e\327V\271I\260>`\036r\022\255B\240>^\241\307\236\212!\233>\262o#\0200\245\247>\205\264\205\223\033\037\272>\026A\027\225\265m\317>\2057V?p\r\346>\261\337;\037ob\001?\317QZ\256L\221\022?\240O\235\n\303\3351?F\274\327\360\314\3659?\352B\222d\241)=?qf\253\001\346\2623?\317u;\177\2070(?m.x\016\245\206\023?\315\224\304\256\253\253\370>\363\302\356\300\260x\347><\'\375#\nx\323>\3455\345#\355\n\272>\r\354\001\360\336\357\245>\006#\'\005\241\237\233>\307\021\360\315\311,\241>\354\0259\270\262\342\257>\210\313\034\222\005\264\305>IM\262\366\215\351\341>\260\252r\325\020}\366>\305\226\363\317\ni\007?\256s\302\353\t\266&?\334\307\003\341P\2235?\374\360\tS\235\274=?\'\005\244\032\24509?<\324\205\272\214\235*?\265\251\216I\224\325\031?\317l&\020\275k\013?\311\353\3742\203\240\357>\335 \227\216\273m\332>\227\177A\242\0367\306>a\322\277\314\277*\256>\021\247\0307\312\233\236>\347&\332\211\270h\233>\216\247Fx\3353\245>\377\317#\033V\221\275>_Ye\367\330\314\323>\006)ak\200\021\345>\340c\330*5\222\000?I\334\367\252\221\255\020?\267\221=1\214]0?\220_\237\2515\222:?^\223\374*\373\204=?v:6\315S\2363?\307Z\020\246\344&%?-\370/\310]\220\r?\356\030#\347\007<\377>\354\016e0\336\340\345>~\206\027;\364\221\320>\226I\257\0350)\272>\222xC\203\327b\245>8%\333\247X\016\232>U\315\377\323(\312\356=\330=?\235\3113\377=\000\005y@\335\r\021>\372\216v\237\355m*>\202s\253\270&\336B>3\367\347\256(\013Y>\346q\323N\326)q>\210\037\236\177\353\264\201>\330G\327/\275t\240>\224\262gV\356G\257>V\013\017J\207\030\313>\357V\255\257\307p\336>\325\330\334\267\340\346\365>\217Qq\332\222\344\013?\372\2463\230\312\020\034?\247w=\254\357p2?V\337\350\334\007\363=?\347\014\310z\356\201:?j;\347V\361\315(?\276\3515`$+\030?\247\325\217\210\003*\002?\326h\230M\353=\362>\237\023O\321\004\220\337>pYwBj|\306>=\223\260*\3142\254>NC\354k\371\213\232>\271\034!\252Y\r\226>\261\026\250\3644\222\245>7\310\300\003\303*\257>Z\250\221\315\256\272\314>\207\'\357d|\205\343>_\031u,\321\201\365>\231\346\241\217\033[\010?\2701\241\325\320[\036?<s\363\032\220\3553?Ok{\024\3243>?X\233& 8\3765?$\000\036i(\201)?\2611\264\361[\210\032?\227\211\366\331\006\361\004?\250\354{v\"f\360>7@\005bh\t\322>E\242\316W\256\343\303>\227\326\333\023 \215\256>\367\324\214\366H\202\234>g\037\353\360\034&\227>K\352P$\000D\243>\322\277\245\\\244\016\271>4\020`\373o\202\315>\246\247\033\341\331w\346>\314\275e\206*\317\367>8\252\370\231G\237\014?\014dW\276\t\321#?\023\321\332\240:n3?\373\215\321@\177\241=?8\352vf\311\2675?|D\363^\027\270)?\346%\232m+\014\026?T\307\326G\342\376\376>8\362+\027FG\355>\3063\315\2318\312\331>x\222\354\372\032J\305>\365\227nn\367\206\260>\005\367\206\265\2538\227>\253.\325ouQ\226>\222\274x\350\355\246\244>\273F\372\374\233B\272>\243\3272\331q\001\320>%\247$\334\242\320\342>k\341{E.a\367>r\304,\342\357^\022?G\326?D\225\342$?\305\005@e\022\3052?8K*\002\364\034>?\n\226\r9\356\n6?`/\221\371\243W#?\274$\342u\245\302\026?\327\261D\t\007\021\004?\231e;\270\321\373\352>\344O\337\r\367`\325>\202O\2503\352\034\273>@\014\277\343\210\000\245>\323\204\251\261RI\230>\314\314\365)\271^\227>\275\013I\001~\002\254>\032Y\035~\225\031\272>\333)\021\275\370\362\317>\320\245e3VI\355>\356\206\346H\235K\371>7j\316=\357_\021?+\276O\250sg)?\237^\214~\213\3426?\357\224\223\207\035\032=?})7\013s\3414?\374Z\026\311/\234+?C\014\342\034\335\033\025?U\325!:\275\333\001?\226i0v/l\352>eG\355s\274\216\316>\231z\000\270e1\273>H\271\320\342Y\257\314>\320x\275KQ)\270>.,P4,\002\235>\331\314\314\337x\264\211>f\246\211^\213\276s>;&\371\331\223\256r>x6B=\010\003\212>\244\315\320V2\255\223>\2729\367\221\205\356\256>\367\005\354\307Iw\305>\031\261b\r\203>\342>bD\013\250\231\002\366>+U\271\351\':\t?\370I\346\313\340\320\032?|\035\225\373\253\230\212>\227\274{\241\001\263\242>\277`\302\2444\264\266>\335\003=\006*\202\313>\\<\025\250\335\346\341>\013\006_,\275^\371>$\t\323\242wE\023?$\000\\f(y ?\341\200\2256\257A0?]\320\241}m4=?p\256\036\374e\266>?\241\362G\272\016\0311?PN\357\212\034\205\"?\344\0265JV9\022?\007=n\037\345w\003?|C\316\361\214\270\353>v\352\032W\371w\301>\213\327_g\001O\254>\266\000\344\304\365\006\235>\222\r\3249\020C\211>\026PdeR\335\214>\266\016\304\321\241\351\232> Ks5J\261\262>\300\316\313.\273\251\323>\372\r\250\303\315\254\340>=G\030\246\217\236\374>x\236k\374Q~\r?\212\326\301\374\212\027!?\277\254\3631\334\0262?Z\342\214\2553Y:?i\001\250y-w>?p\021W8,\2624?\351\340e\205^\205,?\217J\324b\322p\026?\013Y\"}\022x\373>\342.h\251&\211\353>\352\204\245\240\004X\301>(\007\275\033\345\251\251>,\nQ\340\353;\235>\014E\310\037\322\317\211>\254\235\344(\261r\213>\222.>\t\252~\234>Y\257\260\241\017&\261>\312Z\243\312\305D\304>\356Bu\323\313\364\341>Ngf,\351H\362>\033\247\237\345\334T\013?>\320\260\313p\354!?;(\355l}H1?/\353\271\3711\2139?\376a\302U \340>?[d\223R\335\2656?-\010\30101\025%?O\242\324\312\263\351\027?\332\376\374\355\360)\376>\317\212\266jG\231\345>\334e\223\t\220\024\276>\312%W\313\306\210\260>XL;\237\365\214\230>\205\026\032\252\246\360\211>&\377N\224\220U\216>\216\372\004\227\025&\237>\375\232\206\n\021D\265>\252\255\372J\306R\307>\215\227\006\270\335L\341>$\371`w\001\255\363>\253M\005\253P}\t?\213\275>{ G\030?,\3545\010\3640-?%\002\350)\037\344;?m\201\300\265>\351=?!\300\243\360\355\2725?T/$\004\265\334,?\264\036\003P\200\334\025? \372\213;\264\016\004?9\321 \303\003\256\361>X\200\220\364\317\013\304>\247~\331\316\006#\260>\210c\017\265\255\322\227>K\264\323\234\014\000\215>\213\241\022\204\252\226\212>\251\366U\013\235\306\237>\330\244\267\326\\\360\262>\251\357\300o\331\274\305>\333\347[\026\305\'\331>;\343\352<;\206\361>2/\n7\241\'q=O\205\036h\005\003x=\353\237\326\352\313\024\217=]\244=\371\rd\242=\376\226\025IR\305\272=\325X\'A\th\321=\025\r\207M\272\036\337=\321m\215\377\263\256\364=\251\226\036\016$b\r>\307U\341G\177D%>X^q\300\tvA>\0243i\020/zN>\376\336\017(\365\354h>\004\230\0332@Ix>w\316_wt`\223>\302D\346\370)\215\252>\334\250\225\221\226\235\275>\036\027\221\313\026\275\325>J\203!\177\277\222\351>b\260j\314\344\362\016?\370\035\274\320&< ?\211+O\214|\3754?b{\211Xi9<?\233\346\302)x\341:?\260XS\263\n\2572?9W%\310\305\350$?;\306\224\350\332\364\t?\335\222(\0101\370\366>\300#\243\236\223\241\332>\330\371h\215\332\274\310>\264\356\212*\336\307\271>\376\310\334\363$\366\244>jP\211\210=m\234>\320n\360!\271\220\246>\353!M\014by\266>\034}\374GZ\035\315>~lS\254i\026\347>\274,\363\342?\252\023?X\317\274\347\372\n#?H\001;\341\216:1?\273\324\364B\213\2679?\n\\\34308;<?\274\256\352\252*\2703?(?\'{\324}%?\332\023\326<+\265\022?\277\371>]ZO\005?k\352\003G\331E\351>\343\233G\326t\345\323>(k\017j4S\273>\311\204\347\224\227\300\251>)`s\035\214\325\234>*\242\261\257e\310\242>\026\035[q\'7\264>\276:\253\n\331v\313>\263\362\331\nk[\345>\365\32023\362@\374>\344\250\360%\260\350\027?\010.|\203%\253*?gh\274\301\305\1777?d\377z\372\2104=?\254\345\362\0308?8?4z\'\316\033\325\'?\324\356\275\227*\352\025?;\3166\331\032\017\004?\252X\344\212+R\362>\236\021\037\236\325\260\327>\343\026\323\246\\\341\302>P%\177M@\007\253>\241\241\rLZ_\237>\340\014\266\317\342\033\237>\002\350\355\026E\021\260>\021\245@+\027\342\306>c\350nS\333\007\334>\035\0056\235Z\010\361>\320\303\326\370\270\004\023?\230}\301=\250 &?,\361?\362\203\0227?\233K?u\254\037<?5\313\371\307\311\2038?\307\243\346\010\352b0?\201\r\206\032K\313\032?\021 \nV\240\314\006?w\024\207\017\355-\364>I\033`Cp\212\341>\366\024\377\301\226`\311>j\272\233X ~\265>9\341\277\347\216\243\240>\243\266W\027h\204\235>=\252\345\373\026\242\251>\255ZVE)\326\275>\345\225\210\236;\013\325>@Q\264\255A\212\351>\0239\342Cd.\023?L\240L\211E\003$?6El\361\320\0252?!0\2425\317S=?\357\036\036[\252\331;?@c0]{l4?\037\016\'e\'W\"?\035N6L\3061\021?\230*\031a\t\200&?\227:\347\030\354\3775?\310\\\204-\016\270<?\366\235b\344\370\262C?{\313c\265#\023C?u\374\023G\006\3207?\r\3651r\302\031$?%_\272]\215\037\022?\344\327\007m\277\'\373>t\231\233\263\203\237\346>+\332L\260\340D\314>\312J\272\357Pd\267>k\270\313\000\226\023\230>T2\236r3X\214>\242\034\001\"7\016\202>K\035\343\230\270\374\217>i\240\302;\t\350\245>\311\250y\364!T\271>\036\270\250\303*\376\320>`.e!\014\262\347>\020\325\224\241\2727\000?K\253\241U=\261\016?\r\034u]\217#,?\356Hg\3526\313s>L\344\375\303!p\207>2\320\254\234\273\323\247>\330\"J\001t\237\265>\317\251:+\324\344\316>.p\200\221\262\200\334>\265_\326\rN-\370>\002\216\327k\2444\014?\241\210\225b\332]\"?\346^\177\234\024\0263?\r\200\006\222\310\020>?\271\354~\256\\g4?\347s+\302G\023\'?A\227A}\000\355\024?dc\241\2266\255\000?\251(\3673\323\223\355>\270\323(d\274\014\323>Q\2752\235y)\300>b\320\333\202\"\333\252>\333\035\312e\306\224\231>\376{\003}\n\014\230>mQ\271>l\023\254>\316-(_\323\256\271>\232p\001MJ\221\323>\361\240\t\021\304_\347>\223,\322$\232\203\376>\2509\204\366\255q\024?\"\367e\2731\245$?\235L^\233\177\275;?\003\307\004\203\217\335;?\340|k\365\234\3625?N4V\255\342\352\"?\234@i\356\034\277\024?@\013\253\360W\300\375>\311\006\031\344Z\262\343>\t\201\207\337>A\324>\210_~\022+\301\272>\375H\366\352Z\362\246>\355\3744\032\013\323\227>\026\355\231\331\223\262\237>0\333+w\262\377\256>`\320\022\372=\006\303>\260\0279\307[\036\327>_\177<\275+\260\352>K\203x\211B=\000?\341\355\360\364G\332\025?\267e\016\341nX\'?\320\323\276Ek\221<?Jz\333.^\367:?\236i \014\267G2?\177\337SO\207\352\037?\234\217K\363\357m\017?ow=\263\350\340\370>\361\311\000\036\221\025\340>\3535\215\254\313$\322>\307u\327>\2375\271>\006\327_\344\253\267\240>z\000\215\210?\001\227>\364\020\322g\315\321\234>\377\260:-\365j\261>\341{\247\\\265\023\305>\010\351R,\244f\333>\321\3658\373\337\312\367>\277Li\372\245\243\005?\377\301\231c\270\223\034?v\220\'\231wi,?h~\225\261!\225=?\226\224B\004\355`8?\021\345\322;\305\377*?t\203\322@O\202\033?B8X\252\355\250\n?3\234\255f\353\312\367>\206\312;\245<\376\333>\342dw7\305X\302>\271\206\334\013\357\250\260>2%\376\005\270\255\235>\321!s\270z)\227>\365\004\364\367\325\332\351>\031\306\251)j\314\321>\274\315h\276\355\355\275>)(\022\362bZ\240>\310_t\202,\r\221>\246e\370\340\267\211v>\217\335Q.\376bX>\242\330Z]\007\371F>\370\317\225\302\034L.>\361\316~\'\014\376/>x\347T\202\207\254A>\027(\300\244,]\005?\022\255\255\352\004m\345>\223\357\022K\332\332\227=\036\006\214H\310o\244=\340\316V\234b\014\302=71\022+-\316\322=\t\245\255\341H_\350=\356\357\363\277\224/\353=-\377\260\315\315\305\007><\241\253\032\3273\031>\234\000\224\324\310\0220>\333&[B\n\007E>K|\035kk\212]>\031\020E\243\231\344q>\325\205\\1j\221\210>;\262\225\224^\277\234>co*\206>\274\262>`\374v\221\217\314\310>/,g\264\025\212\346>\356\260\305\376\0374\366>\370\202\226Y\025\204\016?#\226\374Q \311\035?\324o<P\346\2610?Mn!\301\340\000<?\274>\232f\264\201<?\375\275\252\375\022\2744?\232\3775\203\336\340\025?\320\241\333u\035u\002?t\376\3579/\236\356>\376,3\322\013\356\325>$\200\336\235T\225\300>\013\320\333R\233^\254>h\355\030\370=E\231>\340\330\21485\027\221>C\3243\363\267\362\231>h\357\217\351\\\374\254>\036\260n=\367\013\302>\206l4u\366p\333>\322\305\215hK\207\355>R%qM`\034\003?\003\233[z9\217\031?\006l\302\002\267\2610?{~\335\3329\3406?=\271\240\232QA>?V\360[X\354\2316?\372\245oI\331F.?[\t\260\t\340\317\r?\206z9^\032\343\362>\330/P\237l4\341>\276I\217\335\007h\313>x\266,\334\337\002\265>Fp\205\304y\244\241>\247O\331\326zR\222>\364Mx\361w\217\221>?\204AD\255\325\247>\322\004\264\244+k\300>\330\343\242\013\312\n\320>7\001{\324\305\271\351>Y\255\326\310\301\003\372>\362oJ\220\3517\022?\364\232\001\373\231\014!?\026\353\035\024z\2561?\302#\263\251\023\311;?\205\024PF\242\246<?k\330\205\016dG3?GV\211\362\362\026\027?n\023\311MUo\376>\236\037y2\264\301\356>v\205\005\023,0\332>\2138\320\343\307\302\275>\274\307\217\211\265\253\247>\020e\027\375\r\246\230>\250\377\303UC\344\220>k\232\311\006\036\001\234>\177\352\242\302~P\261>\307\367\264\243\201\215\303>\253e2\212bQ\336>\261]\310\363\273\250\365>\235\272XhG}\004?\222(g\375]\357\035?9\333\340\200\r\331*?8$\\S\242\227;?hP\364\201\004^>?C\201\013\305\002t8?\245\254%\\\236\273\030?\266\211N\243v\016\007?.\277_\261Xt\364>E\245\342\262\326\252\337>\177<\"\353\350\335\306>\207q\373\317B\033\022?\225\330\252\201\360\375\366>\n>\357<s\t\345>\371\n+\007z\037\321>\207\365\000\206h\346\267>\202\231\021[\363E\243>\006\351\177\307\324\333\301=\211\326I\210\234+\336=\333\354\270\236\376T\351= \210\342\206\366\221\007>\341\365N\324\313\327\031>ac\362\304\374!,>!-!\361\375\254F>+\347\263)u\177\\>\237\270\343I\212\035s>\216DK\223F\346\215>\352\371\327\273\034\343\231>\362[\r\035\305\030\267>\\W\236+U\374\312>\231\334\371@\351\224\342>\201\256d:H\214\370>\017xx\316\353@\014?\345\222\272\354\337\264.?\220\243\255\214\314\233;?\300\316\370\274\366\305=?\2606\351\364\301\0344?\361\331\016\251[^-?\211O$\300\2309\027?\333\345\ts\207e\004?\306\000hI3\277\351>\253\211\374?\263O\321>5\321\257\234\004j\300>%IR>U\255\254>\315J\266V\322\023\234><\264Z\332\377\306\236>\265\265\331_\351\372\261>\301^Y\250~Y\302>\030_q?\326\005\327>\007\310\304\270\237r\361>\301\372\355\374f(\001?\301\006\376\373>\361(?\301\234\350\301\377\3644?\001\204\005T\313\027=?I\036\330N\277g:?\2469z\315\t\'2?\331j+\0334\254 ?\311\234v\255\346l\016?\265h\0246F\275\366>=\n\r\320\305\344\343>\272j*\231\007\221\311>_\001\010P\315\367\257>\200\000\007lj\316\244>\273\n\013\237\032\313\232>\212f\254~\000\200\244>\211r\217\335K\264\263>\252\342\314\244\351\255\321>\331\337[\246#\035\346>\305\375\330K&\337\372>_\302\236\203\266\261\020?l\002\210\2575$1?\253\022\345\000\314{:?V\346mn^\217=?\210\234\001\235\333\3066?\331\274>\341\315\212#?\022\n\372\352\275\004\027?\005\357\021\374\233\255\003?i]\006\231\206\243\353>\327\203\270\226i[\323>\243Xj8i\211\300>z<\033\365#\020\253>\273\307%5F\214\233>\246\023fw\3149\240>\305a\306\303\003 \263>U\214\332\216\365u\300>>\265\267\236\226\252\331>\224\375\021\270\271\324\362>W\223\021\337px\t?z\335\334s}\361%?\211\300\2610g\3414?\226y\322\0027\023=?~\353\014\335\232\0379?\0323\355m\007b/?VIsK\342^\031?T T\"\330c\014?\3056^\364\274y\362>~aC\013\r\323\334>NB\363\365\005\277\314>\031}o\307\005\323\264>M;\315\\\335\320\240>\373\323\210\355\276_\232>\304^\302\307\304U\252>\202\262?E\206\367\270>\003\210\321fwn\322>\270\342\215\356\\\275\345>R\231\371\020\304\266\371>I2\327 \331\307\021?\271\352=\036in1?l\256\262\226\3002:?\362\213\016\352\377\305=?\266\310g\233u*6?\346K\332\222:\006\305>\332\227\0021\014\232\253>\016\356C\275\321\231\234>s2\304\034\242\324\223>6/|z\316\246\234>\354c\337\312\374\356\263>\206[\200A?\354\312>\304\201\306\302t\266\331>\272\207F\202\366l\365>Z+\032?_\221\r?c\337s\370\260o\"?\032\240\344\"W~0?\347`\311M~\033;?\333\322\3657\355C>?\207\356\235UE\014/?\024\240%\023\316:\027?\373_/k\010\246\t?\325\034\202\375G\016\363>\341\036\002\363#=\335>\264$;\377\036\361\307>\224\t@\034N\307\257>E\036\312\331\031\376\233>=\0108G\375\213\223>\234\013\277\253\363V\235>\002fZk\225\225\262>3\334K\267\242 \305>\272\"uJ\240j\333>\344JNN<F\361>r\270\250\307h\212\010?D\324\272\344\253\311\035?6\005\3672lj-?M\234\352\223\337\3449?\233\t\212\374\261->?r\370\370\027x*,?\000\026\216\030\211\305\034?\252V<\275F\022\013?\022\005\025\310\274\243\361>\023\267]\256\360\270\335>\010\002\263\n\0250\310>\274\006\214b`\260\256>f\007\313<\366\245\236>\305\235Y\323\237\331\223>\2774V&P\216\231>\367\335\316\221k6\256>\210\217@\376\225j\303>#\271\371\247\366\004\326>3\266\250\361\241<\355>\275\346\346\027]S\007?\025\211\3733\271\216\031?\330p\237\206\305},?\251\261\027\374\201+7?z!\014\211\235@>?nf\221\310u[0?\270\335\373\244\347\274\034?\221\342\207\225\010\253\010?3\303\232\270\342N\367>QSB\246\213\244\340>:\305\277-2\300\320>Q\210\203\016\252u\270>\271\347\242v)\331\240>\220\315\376\243\342\300\223>Q-S\234K\025\232>\0361\201\210Q\223\257>\217\014\300\361\231\217\304>\254Hw\244T\371\331>\3173\341X\375\377\360>\322\344\246\320\026\271\002?F[\243>\313\r\023?\345\322\237\361\201\016)?D\010\035\210\325\2427?\264\306\314 \3606>?\324a1;]E1?\273\251\023\205zB ?)i\342\035\203\216\016?\322:c\003\270\031\363>\253*7\307\361P\340>\204]\343\234\342\277\315>Eqa\242\254-\270>\250.r\201\000\006\241>\307@\235\030/\243\224>\363\036\365\255\322\013\227>jjB\220\270\242\260>k\206\237\241\n\361\302>\374\276F+\234\034\325>\313|rp\033\372\357>~*\323\262\023\230\001?\315@zzM\202\027?\r\336\313\360\307\236(?U\365\032\351\207\'5?\3518Am^\003>?\326\330nu3\242/?JR\220\350\251J ?!\227\202\277\224\321\021?\302\177\234\203r\270\373>k\234\320l\351y\337>\006\347IS\221\364\314>\200\332\237\234/\366\261>e\250\353\373B\320\243>$aY\235\303!\225>s\231m\3219\242\231>\212r\326\343?]\234>\037\023\304c\372\245\204>\343}Q\3258&k>G\220\317\263\360\032R>)\210l\033\\\t8>\375k +\212_3>\202\335ka.h(?\341\230\264\212\343n\022?\035s\345-\341\177\000?\302\307\255\035X\014\205=\027\314Wx\277\376\225=\341\374\327=\354J\257=\033\300\345\374V\247\264=\245yc\213\367\326\321=Y\234V\270\243+\347=z\342D\221\256:\000>\027B\313\030I;\021>:5\026U\211E%>3\356\252WVf>>\237D\236$\243\247N>\3651\344\344D\211j>\034\321\313\341\030W\177>Z\222^Q\2070\224>\000\030\2178\377\271\261>\255\240R#\337\210\276>\352\303K\r\346\313\322>\267\264?\024s\247\353>\343\304\371\337B\245\000?i\371\305[Xv\030?\366o\220Ll3+?-\246\3067\26178?\224\340a\346on;?RM\216\353\035\2500?\004\362\023\243\301\364\037?\244\311%\025\315\213\021?rpB\310\356?\371>|y\261\251\237c\343>\312A5^\237G\313>\206\253q\221Y\344\271>\307\226\261\367\034\312\242>\326sV![K\224>\316`D\263$\212\235>\240]&\201\365\332\253>\272T0\247\177\216\306>6\363\206\1771S\331>&\321\356f\372\210\351>\201=*\215II\002?\255\312\036\233\262\245\025?`\002\244\013.%\'?\222\014\354a=\2006?\311\210\207X\355U;? \247\302\0213Y0?S\256\315{6\023%?\274N\347h\354\245\020?\301\022\220\305\253u\367>\351,[#zX\345>\304\rH\205\376\360\320>\277_\376s\024\214\273>5\202\002Z\355]\246>\000\000\000K[d\224>3P\336,\300\244\231>R\205\344Y6V\251>\277\265\003\314\005f\303>\303\2767\342J\226\322>\265\324\rf\017\253\354>\346\"\312?\2434\376>Z\320\037\034>[\031?\350\305fa\\\262(?Y\337\341.B\2734?\316\350W%\236h<?\253Uf\034\273\3430?\215\250&\017rN#?P\310\222\375\r\375\016?\r\362\027}I\372\363>\202 \210\226\013\014\341>H\274\016\003\320\305\316>r\304g\220\344w\267>\224\031\301\346:D\241>\177X\352\252\312M\224>O5~*\305\341\235>k\203\254\305\230a\254>\311\210rF\336\315\301>X\270\231{\235\245\327>\264:D^\nU\354>\247\304Bph\315\377><b\005W\206Q\026?\235E\"\3666\232%?p\332\322\202\237G5?\217\363\203\2553@;?L$\240Fi\361.?\200:\251|5\207 ?\343\177\337\033\313\007\022?K\320\336\230\2173\373>\016\204}\342]j\345>\021oh+?\361\307>\263\005T8j\253\263>\307\332\364\204\276=\242>\264ZVya\210\225>\027]\374U\334\357\231>qD\207h\252\243\256>\027m\023[\226\307\302>\3777\000Z\346\026\322>\255c\301\305}\362\360>\205$\222\261\201s\001?\365\035\275\316\202\200\026?|/\213\243;w5?#\251\2320\347\031E?{\314.\2711~N?\3709%\000D\024D?a\334\362\346\256\3462?\006\302\210>\363: ?\371R\265~?\203\000?/\315<\232\337\337\362>r\321h\375\201\303\320>\230\377w\246K\361\271>@\314\364\224\267\314\244>z\"|\317DG\217>\205t\272\343\0234q>\261\372Bk\"=W>\177jF\365h\333?>\301\371\316\224f\3237?7\342\330eMN\"?6s\331p\374P\021?\271\303p\027\320\251\373>\200a\rp\322i\341>\206\224\243\317\3659\304>\315\272R\203\352\217\261>Y\240j\360G;\227>\264q\343\353k\354\207>\230\305\256\232\357\247z>\213G1\275\227\005\201>\244\225\314\303\205_\231>\367\230\030\301 \264\246>\332\000\266y\327z\301>\275\372R\367\257G\337>]bVP\022\376\357>}\362x\322r\r\004?\243|\"\"1\276\036?\230\331\n\262\006\2402?u\253\034\256\001.A?Q\365\347\362~\265\223>\024\240(\007\262\234\252>\256Kj\202X\245\307>]\365jqoC\331>\n\327f~4\270\355>\331\206*\265\t\230\005?\232\300[\026!\343\030?ki\261\316\215@\'?\367\230\275\255\006j:?d\237:\240$\211>?N\213K\210U\2079?\352[\330\376\331\212 ?\355M\315\327n!\017?\200\024\222dH}\363>#;\024\361MK\342>\321\230\212\\{>\320>\367\177\025\002\002\243\265>JpX_\326v\241>y\257js\341%\223>\353\246\036\216Cg\224>#\345\002\340\313G\244>\356\254C;\321\324\277>\017\351\302\366\3502\321>\0352\2125\310\034\344>\210\266#\330?U\375>\031\201\362W\004@\023?}\036\005N$\304#?\241\253)\205\350\3165?\204\265\306\243$:=?C\243n\270\267\265=?FG\254\355Z\363&?V\306\034\247\2614\022?\202\240PwnE\374>/\342Y\3700I\350>\t0\205/:\250\320>\207-\372\323\205$\276>j\244\033*\300\370\244>\005\227\345c\025\313\223>\346\271;\201/\344\221>\276\224\222N\364\304\236>{\356\322\033y\331\262>>\236Xp\203\001\313>\331\374\030\211\262\244\343>~m\257\032\002\226\365>\312\1776R\331\277\017?\233\203\320\252\200M\"?\222\265\336\243@\2323?\320\004\315\237y\007;?\01308\026\303\275=?,\234\377\017^\3362?\306\365\024b\331\300\026?\257\343o\207(\305\003?\310\022\226\000l\352\356>\322\304R\237\020\026\331>\332;\320\216Fm\301>\354\265\\\032?F\254>\244\306L\021C&\232>\016\017\023S\240\277\221>\024\267\307\3648\365\225>jp|\353\273=\261>\023\250\2238\316]\200=\003\261)\373\r\250\220=l7\262}J#\251=\246\332\252\203`>\300=\200\177\2638^\310\322=Mn[\321\2436\336=\336\025\370|\262^\351=Mh\300\273R\361\003>\035\035ehE!\034>4\243\272\377\017A6>\016C\227\000C\225D>\367\00549a\235]>\307O\2110\337{t>{\342\360h\300\343\212>\327\213\305\021\372\315\245>\2524\327\367L\005\267>U\"8\371\236\327\320>\274\341,\262\014\t\347>\300\224~\233+)\372>\205\202y\235\235!\022?Y\326OS\024\243\036?oN\265\232\024\t4?V\305\211\246\303\313;?\227 -p.I>?\341?\\\330\375w3?\315\371A\033\265\375\027?z\334\256\357\245\"\377>\231\351b\225\367\337\347>\270\215R?\334%\324>6nD\312\256\237\300>\326L\213\022S\377\260>Xh\205\343[!\227>\326\016\' \376\222\221>N\323Qj\305\324\231>_\305?\2323\274\255>~\026SL\251\023\312>%\314\340\344\360\266\331>0\021W\"n;\366>O\260\"Zo\\\006?H5\271T\343\216\025?@S\010I\352\324-?}\373k\2446\2568?\266Ymx{\204>?{i5LT\2668?W\215\027\375\367\316\033?\255\235gM\036\247\010?\2316\366N\203+\366>k\223a$*g\335>\3249\321S\003N\304>\006@\005oN\205\260>\256\017n0\034\346\240>\270ZCs\361\207\221>\025\007\255\347\347\352\227>W$B\242wM\251>\014\027\347\352g\351\274>\177\337M\325\373\021\323>\315#\025\230\026\234\360>\0077wf(\230\003?\003\231H!\251o\027?=%\346\247\234R(?2\333F\206\241\2067?\357\253\370\2651|>?t-\336\354\257a;?5G\3253l\276#?\347\020\205\314\005\343\021?\243\242\262o\211\r\374>\370\347\005\362X\210\345>\016:\325E\256O\321>0\020\246\250\014\223\274>JD\233\'\330\252\241>\2131\3306Gc\224>DB\314F\263_\222>\321\207CN:\267\242>J\255\364ko\364\274>\027\320\307\203\312x\316>\247\351\010\241\313W\346>\263\233\233\003\274,\372>T\260I\310 \217\t?@\025\363\255\375\216#??\345\255\320\357\0073?h&\353H;a=?\336R\332\246\257g=?\235\016\2307\314\0334?b\000{\340\234\350\024?\227\336\223[X\245\000?\236\323\033<\363;\353>\3610\315H\253\265\330>\031\362$\007\347B\300>A\311>\223\241\326\256>\374U\212W\255\025\225>vMdM\311\316\221>?X\'\376\326\267\237>l[8\306k\037\262>@\365vJ\262v\312>S\251\214+z)\331>W\203\317\013\232]\365>\002\027\245V\211~\005?5\216>\301\370g\027?a\270J\210\233\261*?\204\300\327\323]\3519?\373\225\323_!\253\300>8n\374\342\275\373\325>8\212\030/l\270\341> b?VB\020\001?\265\000\214\210\300?\023?$@G\334;\014%?\274\316\257\"\210\2433?3\021_\233\253\246=?\035#\215G\\$;?*\370\355\221.}2?\325.\'\213\361\235!?\330}\376\005\240\247\372>\375|\002\304\374\232\357>\2679$\265\215D\320>\014\252\214\014\213\216\272>3n \200\320\031\242>\342\306\253\242\017\341\224>)a\275\353\311T\220>Jcc8\302<\235>\017\265D\221\016\307\263>1\240\373\343a\371\310>\224C~\034\256z\326>\233\337\032\211\242\330\361>\264>6\240\244Z\003?=M\037\223i\245\035?\344+\317\327\270=2?\253f\361B\'\255:??D)\353\317\252>?7\270sh\000\2155?\354\r\356Jt\203%?\332\340\2771\023\r\010?uM0\366\022w\362>\226>e\312\214\256\340>\251\346\014\253\366G\306>S\020\315\220|\351\263>\357\223\234X\245\r\243>s\234\342\2023\306\217>7\302\014\n\376\374\222>\256\274u\232\016\312\246>\364X\023.<\223\263>O\357\271\371pL\321>q\0225\363\036\311\343>\001\220\370r\263\216\374>Tz\343\373\331\003\023?m\006\334o\253J%?<,y\336\004w3?\313\270\037\252rE<?e\201I\024\303\2069?\2140\344\320\r32?\225Y\243\241\3125\021?\303\270\270\337\353z\377>\323\226\324\355\215\370\352>?n\221\220\236\206\323>\253\036>\213\t\230\273>\037\2447P\255\221\251>\354S\307Y\227\021\230>\ta\004\3717\323\217>\271\321\0106R+\237>>\225o\037\024\203\260>\025\020\233\034\007\352\303>+\277\374\254\3372\332>\212\020\342^\026\361\360>\256\n\t\020\242\030\003?\247P\250{r\031\035?\204\340\210\374\301\014+?\020\3408q\274\3628?tYR\372h\232>?\225 \276+\356K8?{Q\351\241\307\371*?\024\031H\374\301g\n?k(%\273#\366\361>\311\346\377,[I\341>\360/\213X\261\346\311>\217p\267W\247\213\264>/\207\337\251\234d\241>\202\224\307;\202T\223>7\315\030\243\317?\223>c\004\352\031\203q\240>\276\274\261Gz\300\270>;\371\2502}\211\320>\013hE\207h\303\344>\362\331\311\371\240\n\373>\310\275n\022\"\217\013?~\241[\271Uu\"?\226\243\341ET\"2?\313M\306\265\320\303<?\336M\322\252/\374=?\251\324X4\360\3653?m\322\260\224\032\352\017?\037t\254\345T\027\003?\206!\326\231\357\010\351>\177X\007d\300B\323>m\225,\004F\353\274>\357\271\025\216\350t\253>\316\365I\367\200\266\226>\022\303\2745\004\025\220>\233\237/P\3437\226>a\273N!\301\233\254>\213\257\205\225S\277\300>\327\373\336\255\304\365\330>\224\'\247\216\017?7?\375K\337\232\237\361-?\221\025+v\340w\024?\001\331\273\336\252\225\002?\326\n\313g\032g\352>\020\'\004\031~\213\326>\021@\243\362\214Z\272>\371/e4$\362\245>\211\341\177,\274U\220>\314\314\002\333[\266\200>\234\007\213\027\\\005\203>9\316\250\301_\237\223>g\221\362\232\247\021\007>\347\316\346V\253\332\024>\177\343\304\'vE2>\244\255\223X\232\010H>=\317A_*c^>W\267h\277\260^p>\2512\3277\020s\203>O.\017\322\200\352\237>I\242m\370\222z\263>S\372+\247\336\303\306>\367~\227[\252[\342>5\243\260\274\377j\366>\204\317@\222\034]\n?T\035$(\021\343\032?\305\014\300 y\326/?x\243\024\032\350q9?\226\341\001\351\250\2069?f4\3760\257W-?\350\321DPU~\032?u; \342\230\222\002?7\322b\214mW\353>\363%n\301\242\221\333>\306#\353\316W\367\303>\247r\302zqp\253>\323>9]\031\344\233>5\361\3002\315\376\223>2\241\3204+v\243>\367\\XFo5\262>\261X\003\005\353\315\312>\343\217\241\205\306\010\340>\204\340\256\333\375}\370>fwO]\207\210\t?\263{{\213\344+\035?\000n7a\353\3702?D\307}\030[\353;?\020Q\247\351\266;8?z\327h\353|+(?\350\372\240\353\252\036\032?\311.\000\'\262\317\003?\353\340y\014\320\263\363>\346]\021\3144>\330>A\275#\210-\272\304>D\342\020\366\243q\256>\020\376\365\016\366+\232>G\246\250\006\276\321\223>2\303M\0342\336\241>\302#\346\366\205x\263>\366\225H-Nt\307>\021\0329\247\261\370\331>\276e\000\351U\333\365>\346V\362\307\352\317\014?M\306`\374\005I\035?\237\315\212\022\303\2062?\211\336\223E\023\325;?\240\016$?\330\3068?\033\030\226\333,\332.?\336\251\037\301\322\306\035?\260n7\n\200\351\004?X\235\335\363\240\004\360>\257\\\265\006\331\202\332>\235lP%\312&\303>7\202\217\301<\272\257>iY\366\010\226?\232>C\275}A\030\356\223>1\034\247\270Hg\244>\344\273G\035\206C\261>\262\371qT(\005\304>q=\347\177`*\336>\324\254\322\272\007\353\361>V\311w\037\331\322\t?\020\315\312\206s\033\026?F\331\300TK\361.?\336\023\316\256\307\r9?}\277\212?\376G>?\243\315\375\315\266Z0?>!\332\301\241j ?]e\220g\240(\003?\007#\2310A\033\364>\363\315A\231\342\353\333>\307F\266\352?\313\312>\217\035\261\007;\351\262>\275\237\367lp\t\234>\346;D\320^\317\223>T\367\250Mr\325\227>\005\315u\002\321|\260>\362\005\265V\262\035\306>\222!\233(4\337\332>\261\\\037\335c\374\361>\212\305\277\336\211 \304>~\027\204\330I]\254>n^W\302\315\221\225>\366\t):\312\371w>u\247\007\264\242pV>\204\272\0364\243\267E>P\336\251\022\350\3578>\376\022\310P\372\005D>/B}i\327sZ>\2214X\360\026j\\=\316F\221\247y\343v=R4V\241\026\246\211=\2342A\333\026\241\241=4sk4\027B\245=}\224\255\263A\355\271=\2514x\212\300\352\314==\205\265\343y\237\345=\254M\003b\220D\372=6\224\t\234\332\237\026>\316\267w\374\215\276&>\215?\325\352\0175A>v\276\221Q8\251S>)\0310\270\327nu>\344f\346\220\225g\201>\033\001\312\030ag\236>\213J\361\274\306\\\257>L\253\030\216\353\316\305>\245p1\005\221\000\334>B\242Z#\272\303\362>\236:5\334\251g\004??l\020\007=\375\032?:P\022?)\2504?>~\254+\241\314=?rx!\365\261n;?:b\000\0314\376*?\352\246E \017\304\027?)%/yJ\252\007?\331P5\252k\271\360>\256.\001bX \330>kO\314\312\217\206\310>\300\214\241\246\250\025\264>\347w\221\007\224\\\241>\214\312;0O@\230>jbv;\350\013\242>\342\r$$u\352\273>~\332$\346M\363\304>\327s\177\367%\232\342>X\274|cI<\371>7H[\233\341R\021?n`\306\302#=$?r\334\005r\317\324:?\036\312\245\260g\302=?\216\200t\212\357\3744?\t\300q+\035\023(?\307\223g\242\300\001\030?\244e\002\216}\202\002?\255%t\302\350\016\360>\304\341Y\251\237\347\323>\031\307\2375\231\245\271>\007N\340\031\001\264\250>\321\370a\361\317\260\230>\311\"\220\020\370\225\236>{,\355\231\252x\251>\371\336%G\003\037\270>\037\353\177e\356\337\325>g\264\322\370\377\374\351>n\253&[w\306\004?\027\375c\364{\360\022?L2\302\265\355\362\'?\000\\p\351\217y<?\327\3058\250\370\336;?\356\215F\353\023\3252?V\200k_\272T\"?\253h8\030\202\346\r?E\322\353U\224\t\367>\327\321\326\342\201\222\351>\341\366\363.x\261\313>\212J<vOV\271>\034!\0036\364\230\242>\3611\0348\362\256\227>&\260!z\030\226\240>\253w\330 \253\262\260>t\003\271\250sF\304>+\t\310\274\210\262\332>uRs\005\225&\365>\234\236\327\230\305\224\010?\214\362\250\236\036\\\035?~\3568\306\312\3618?!\252Q\256\001\251=?\235\226\353\0314\2108?\223\273\353\361\351\3511?\254\007\302?\020\310\032?.P\207G\300o\005?\\\272\'h\323e\366>\033\222\374\307\303\235\332>\340\352/\206\244k\306>\302\n\262T\340p\260>\267\340\3244|\240\233>\207\017-\017%r\230>\210\233o\300\n3\244>\344c\267~\264\234\035?)\006\004\n\216\034\005?\261,\037o\217\003\364>\r\222?Gt\030\331>F\244^\350\223\025\312>\030\340\357?Q\347\265>\347\031\246\326\306\213\266>\223:c\304\007\346\274>\026\335\351\363K\t\320>\367\252\362U\"F\342>\263\252\034\036\270\300\370>\330\265\251A.]\013? \353\253\033d\376!?\200W^\340AA3?eO\020\020Qt:?\n-\324\236\353\254;?K\013ai\351:3?<\313\352\" \312#?\362W\215\222\027\033\017?\371w$\303\037\003\373>I\373\364t\237\274\340>\236&\351C\203j\321>\253\324J\025\247\244\271>\267\224L,\014\204\267>m\030_o\372w\270>\360\032\3720@\244\312>\n\250\n\\\267\206\327>\007\314i\242\267 \362>\324\312\352\262\205Q\006?\023k\253\215\334\357\033?\333y\2173\243\2250?\227k\216\232\362\3328?\240\214d\257\2577<?\210\252mn\036\3502?{\375\354F\377\367$?\224\267\377jw9\027?&;\256\231\235\001\002?\240\231\033b\006D\353>\226\036\265\004?\273\317>\003\334\325\345\177\304\274>\375^7\321\315\352\270>Q\024$\364\354b\266>5\253a\216\370?\303>\335%\020N4\220\330>1\027\023:\310E\356>\320\'\272\t\247\374\000?\223\216\346\002\356\246\031?q\007v\274_\277*?\016\320\3234\250\3167?\177\250\246\363\274\256<?\006\1778b\343\2177?e\331ms\320r(?W\277!\000\363\255\033?H\213P\320\351p\003?\377\276!T\217\311\355>\342!D\206r\367\330>ho\002\261\363\\\300>\272\243\254\341\031\036\260>\216\311V!?^\266>\332.q\206q\261\302>\325\031\363 \363\254\322>\t\244l\224\220\261\344>1\211;\352R\270\373>\262\346\256(\320\316\020?\013\327N>\257\262#?0\'\221R\036X7?\237\300t8\340\275<?\307\222\231Q\004o:?=0\021\267\240\350.?M\314\247\253W\007 ?>\364\225\361\244N\007?\037\355Qas\\\364>\312\037$]0\260\332>\3219.;;\"\304>M\330K\374\237\363\262>L\265h\307\235.\270>\257\214\330\372q\250\276>\177\216Q\336\245d\311>F\334\231\2354t\341>\337\273W\200\017\253\373>\227Y\350\"y\273\021?\025\215\034\002\370\341 ?\312\273\'\305\325\3660?W\226e\035#\3659?\304\020\017\263\342[;?#\232\177\261\323\3120?^\213\tH\340{!?\351\242\375\317(\365\020?!\332\206{\370\355\372>\016\032Y\327\343\037\343><\3767\007p\347\315>\354\"\376\226f/\266>\356\337Y\261\017\352\272>*?G\207\204;\276>\225\214f\360\265m\310>:.OO\301\351\341>\222\275\256\350b\365\367>\317\030\003\364\235\370\t?\235\213k^7z\"?+\244d\007\347\0171?\n\244\374]:\002K>_\261\217\262\301\021Y>\337\202\240 \303\342{>\357\347n\202\033\204\223>y \0044\314\317\246>\352\271\356\270n\222\266>\302\311Ax]\361\320>r\343\212\213Pa\351>#z\244\036d\201\376>;Rt\275\036\236\014?\356dENF\016#?.*\310\201x\2541?ut\304\311\014\210>?)\215\276:\'\231;?\344/\234g\036d0?_\256l\233_g\024?$\267\274\274\225\326\000?\333eb\235\223\374\346>\214+\034\244Q\227\316>\023\272\271b\352\217\272>B\372\303\017\005X\250>R\246\0344z\201\225>L\334\252\314\341\310\220>N\004YU\354\245\236>\223\227\027\224\301\342\262>\235\2635\360\004\003\301>g\235I3\320\210\333>\245\037\277\244N\275\355>\007\253\032i\2131\t?\211o\306y\314\225\037?k\224MY9\3120?\272\275\264\010\367\2739?\212\322V\236?\235>?\345\t\300\302\343\0245?\334%\257\005P1)?\225\247\327\317O\021\010?\252x\217T/\201\357>\376\030\260\016\270\221\341>m\257\355rD,\306>\334\034\373\332|\226\267>\336g\303\303\230\303\241>\037@\257\032\354\301\220>@~\007\266\334\204\223>\017\302Y\277e~\246>\271\215\370Z\014\372\272>\223\265w\273U\037\325>/3\263T\303\364\343>)q\rn\272n\372>\374\t\311\2643\232\026?\211\377\261&\226\017\"?at\001\\\003\3216?\017{\324\332\356\352=?T\244\360v\251`<?tt3\322\366\3142?\250\240\010\355\347\035\021?\254\236\002\227TJ\375>\"-\242\266\017(\347>\216\274\275\025\221\036\323>\031\347am\275\321\274>qcI\0214\372\252>{\036\326e\006{\226>\246\275\366\316N\251\221>|V\260\023\256\'\233>~_Q\0304\017\260>]aQ\203\255\220\307>\360\241\372\n\257\331\327>\310~\\$\"\037\361>\010\322\312c\003\372\007?Cgt\304!\240 ?\266\216\223R860?\311\212\226\247]g:?\037p\036\243\244W>?H\311\232\233ku4?\267\264F-0\343+?L\355\034X\221\256\003?\356i\024\363\035c\367>g\3266}\220/\327>\356!\373\277\276n\311>\023\265\272\'Kt\253>\300\021\n\022M\026\242>^\273\363\331R}\221>\200k(q\233\302\222>\027\311\261\227\356\305\245>\205L\304\307\207\026\276>\273SU\204\021\320\323>f\017\316\024\232m\352>O\331b\355Z\266\372>\344\231\021ZP\334\017?;\330\t\323G\222%?\334\031\215G\367\3424?\256\272YY\276\023=?J6C\001\031\373:?h[\310\263\036\3740?jMP\\\304[&?i\251\251\2523\t\000?p\261c\325\366\322\347>\2266\241tF\306\323>\374\251\315\246\364Q\273>)2\'\331(v\247>\216\363)\207O\220\223>\373 FVM\341\265>\372.\365\177\256\345\231>p\255Z\0375\273\204> \277\244\025\256\010r>W\244Bg~\345C?\\l\226\2176#=?/\177\'?\017%(?w>\320\177\316\246\024?\327_\3363\251\240\000?QS\0006f\016\356>\320[\211X\226*\326>\024{\030\223\363\321\274>\023\364\306rG\273\267=p4\361K\312\r\320=Ck\372\305\023\253\320=\261<U\020\202\270\344=c\256\310@\275\203\000>JL\350\256n\261\031>s\\\305\262\225\201$>\316\237\007\257jA=>\367\205\2730\373NX>\335_\237O\021\202n>\0026S\327\n\331\200>\273\277g0\226s\223>\016\364ZO\310l\257>\267\237\352~]#\315>i\260(|\026\235\335>u\300\0010\315s\362>\210\317\t\353\036\242\006?$i\210\204\t\376\030?\257\014\024\246G\306)?\342t\256\214\225\2159?S\016p\3456[>?\363\026\343\330\247\356,?{\r\031_\243q!?\321\326\336lc3\004?\014\256A.\222#\363>\177\026\237\202Y\302\341>\257\362\366\006_\006\312>\325\202{\033\246~\264>\374\260\"zn$\237>\324\355\004q\204n\223>\371\226I\300!T\227>_\335\203\327tV\256>\227\2553\226\323\220\274>\266\313\0340\373z\335>\201Y\376t\345\013\360>+\360|\214\320^\006?\263G\200\t\221P\026?o\244c\3358%(?\374\206P\341e\0026?\244\006@\355\311_>?oOg\221\305\3052?\010hp\331\t\216\036?2\254\341\r:\374\013?\263\022q>xU\367>\216=h\021\201\260\336>\240\356\2719\255j\312>\2033#\276\035\300\266>\"\246x\325\243\220\241>4\224\323\357\220^\226>4\221\2002_q\225>\213\350\223O\325o\253>t\2072\313w\265\272>\200\211\306\031\216z\324>8\256\016\227\351{\360>x\247\271\323\231\275\001?\2073\016\212w\250\025?tt\003\321\0333+?3My%\\53?<\377\001\374\270\211=?\227\264j\332\005\2773?\360\301\215\225\327v ?k\220\260f\r\311\t?\037\201\t\236\270\367\367>FO;J\001\022\343>0\374\237\316\3404\314>\304\331\333T\032M\274>E\265\324\304\016\244\235>/\\v\325\323y\224>\n\034 \256w\256\231>\345\374\336\032\310x\252>5\3056\357\032(\303>C\024W\317\327/\325>\010.\262q\366\326\355>\335\362\020\030\300\017\375>*\250\243\026\014\022\027? \336\007\210\241\247)?\326\021.\021J\2544?}\006\276|\022^>?\210\034}5-\t0?\005\213+\013\'I(?\353uwN\227\314\023?\207\366MC\211\245\367>}\313\027ZB\236\344>\362 l%/m\325>\001\246Q\301\t]\271>\317\246\343S\343s\242>\376LY\277\004\231\224>4\032\334\n\244e\230>\177Z\343\273n\000\337>\336\266\252\023d\200\304>&%U\240fs\267>\020\240\244\334.\267\241>^5\031\256W\024\221>)$\023<[\201\235>J5\223\037{\360\254>\253\215\301\017\202\021\260>\325\220\254\273\353\027\314>i\201)\220\004\371\341>h\177&P\332\351\367>\277Kf\360\343\213\023?x\246\ri\255%X>\03640]J\340s>\346\330\202\335\021\331\202>\264\014\263]qC\226>\034@A\317\032?\257>C\235\271\014\327W\326>&7K\304\016$\351>\"(\231\032IT\372>;e\334ji\324\022?\231U\333\266f\355(?\2747V\370)\3173? \035f\362q\311<?\311\030\273\263\024\3308?\230x \244\022\2441?\2752N\324\267!\031?j\376R\237k[\005?N\270g,^A\364>\032\262\362+\261d\332>\t>\342\343\'h\306>\261\232\232*\212\023\254>\312\200i\250\341\363\242>\'\373\323<w\212\247>\177\207\204\260\367\212\303>\242P#\312\274\311\335>\350\t\316\234\000q\361>\216\035\260\200\027\316\006?\224x\224t[n\037?\304\223\333\254h\2522?\346\312C\232$t;?\373\276\223\035\326\337<?J]\272\324D)5?A\361\244\214\033s%?\266\375\255\022\200\376\025?\207P^\363b\273\000?\036\210>!\367\273\347>Is\303{$m\323>\204\330|\371\237\037\276>H\303F\007\376\363\254>L\177]\336\237\241\243>\240\0354\262\004p\256>\230\027!\225\373Q\321>\234\3074\251hW\351>\034K\326\355\364\251\372>7A\\\212\221\243\021?c\027\200zr\377&?\335l\264\256\226\3431?\036\353\273\375F\315;?\261\221*:\203\002:?\300\261\230\037\244\307/?\327=\313I\250\343\036?x\211\204\224\275\266\010?2\365\r\256\\0\373>\377\035D\004\200\020\342>e\004Q\345\217W\311>\"r,\322Z\232\266>\201\216\373\267\253X\245>h\257\325\347\335\252\244>\266\372B\2073\232\305>\327\237\242$\316\253\330>Cs\032A\262M\362>o\244\276\014|\231\001?\364L\303\217\307\241\027?\221\306\336\326d|*?=\205I\357\227P7?\014\363#b\275(=?\352<ms)\3606?\265\321\227\177\2675(?\231\014\257\351}>\033?\276f\257\373\311\231\002?\356\034\376L\235\364\356>\210\341\242E\212~\333>\\\332\275g\016\255\277>\017\215F\2345R\262>\265\213N\007U\341\242>xf=\224G:\251>\031\021 \027\263&\314>\354\030\202\313h\005\337>Y\250\345o0\033\364>\255\332\032V\001!\n?\311&\214\027\t|\"?D\275\305\315\337`2?(\256-\265\206\247:?\264\347\256\364\331?;?8\t:\246\206?4?\004h\244\217\206\007%?;\274Xn4\230\021?\234V3\000\322\245\374>]S`3\251\226\344>\205\220U\243\363\253\234>W\232\n\270\r=\241>\304\253\204\333S\016\263>-9\326\354\201\021\307>\372{\370\377vc\327>\033,B\215\005\220\371>\212\300\333\010/\275\006?\263\355\215\200\0211+?\376%<K3$9?D\372\364\3679\306=?)\030\000\252<\2507?M\226\271\0344\220-?\211\213\014\207\272\372\035?<D\24410\254\003?I\022\265sV%\362>\2546\342Aa\354\323>S\270F\323e*\301>\013\'E\"\037\027\263>\247Y\206%\"\030\237>c\023\345\361DG\235>.oI@R\216\261>\237\262+=\325~\300>\236\247\272H{V\324>\276\324#/\351p\353>v\337\325\304\273\347\374>\220\274\207\231\245H!?\345q\336u\312[3?\221\327\270\2648\311;?\242\375g2v\r=?\204\266\375<\246\3564?\375\020IgL\'!?\373\324\362L\360\212\017?c\213\324\006;\315\375>o\007\245\003\333\257\344>\327\315t\3327\031\315>\323\215h\210\316W\272>\3541\351\204\361\244\243>\372\363\337\n\347c\232>\013\221VU\032O\240>\tL\331o\3113\271>\326s\272\267\'\356\315>t?\243\311\315Y\337>Sx\371}|m\364>$r!\014W \r?3\337\262`\205\2530?+\205!\034\226F8?\375p^_j\321=?\350\315\300\204\021\0357?f*&Y\r\357)?\260u\231\310\261\311\027?4GU\325U\334\003?\342\326\372\022\330\262\350>\374\376\275\334\265~\322>\201zl\220\214\345\303>\326\352#=\323H\253>\320\317\014\014\350\365\234>\357\261v\006\240\302\235>6\211\222\306\t\341\252>\366\200s\334\307g\303>\010\000\251\206d\321\327>\276\335\006\210\331E\353>\366\014\274\354,\025\001?\213\256]\2237\205#?\256C\277;\207\3362?\332B\204\027)\013=?s\277?\t\327\3377?\217c \223\362\3210?\267\232\346\312\263\215\035?\261Y\216&f\373\006?\002\302%)\270\017\362>a\020\374E\311.\341>)\177\t\365\233\313\314>4\255\n\"\205@\270>\235U\376\010O\264\240>B_\274\301ye\232>\031\276\231\303*P\244>\324\372\211t\362\023\263>\250\356Z\200ll\320>\003\256\244/)\371\351>\251\232\316\346\250\335\367> i\307)\021\207!?\312~\030$>\251*?a\305%\346F\3659?\200Z\364\344~\350<?l\355\273\n\252^6?aouG\006q&?zR\004H\323\007\023?\321+\256&o\237\002?\374Z\3469\303\353\352>\276\265l\210\357I\326>2\231\342\264\2150\303>\306\271\370\377\355\237\247>0\341\310\022\372\252\234>\270B\036\262\365f\240>\322i\220p\223\200\255>\317\332D\236\216w\305>\273#[\302\314\035\325>\233\351?\017\356\215\360>pC>\274V\272\004?\363\222\255\\\031\035(?\001\300\306x\300\320C?)A\017X\350\202N?f\022\0358x\310J?kT\2669\332\3748?\277^5E\273\2550?;\271x\226\215^\021?U\255\371\340j.\375>C\336\005\002/P\343>\353s\342l\334\003\306>\325\324^(\322)\254>\t\352*\315\252P\230>\026\232\303\\\257\237\200>>\231\026\346\264\257f>\335\224\330\224\227!S>bs\350\214\257\227>>\333\331\325\024\222\303A><M3\'\013BT>\010P\322\266w\316m>\273o;?\222\205\210>\376\267\005\373O\260\002?\004\353L\034\343\255\357>\245\2160\002\377\022\331>i\305\002m\253\304\300>\344\017\236\3045\372\245>Y\246 )&\016\221>\342\317WOL]\205>\323\365k\2648\004\217>\210\353\217\214\277\020\250>`\225\263\202*O\003>\225\200\201\t\254\355\027>A\373\346\245\274?1>\361\252\013\277\224\264B>\352\221\212\274\222\324W>_\326g\244\t\\n>\020d\353a2B\210>\241B\345\007E\355\235>C%\2260)\261\251>}:\371I\255\036\307>\372\261H\214\364L\334>\362\034\217\265\201\225\362>\362\321\213\016\237\005\007?\377L4\274\245\000(?\310`\307\022\300%6?`\332<f\034\320=?\361\264q\n\210{9?$\324\247.\300\327+?\360\273xZ^\277\027?\342\026F*\340C\004?\232_\357t*\021\363>1H\276\261$\376\332>f/R?\222M\303>(?l\215\327\365\257>(z\352\030\031\266\236>\303Ji7\020\373\231>p\340gz@\335\250>t\016\267X\323\365\277>O\003_\243I\362\322>\"zX\273\305p\347>\333\267f\361\246\252\376>\217\351\034\251\013\364\020?@\353,\007b\0022?\266\257H\r\034):?\370\332Z;\211\206=?\243\322~\031\024q3?\253I\023]\357\263\'?\3456\353\315\325\r\022?R\376\022L\037\354\372>D\021p\026\236\340\354>\301\370\212my\024\317>\247gG\211\223\014\275>$|\244\265\274\330\244>QI\227\234\017S\232>a\235U\037\361G\240>\276\203\305\320\001\025\262>\316\332}\226\233\373\301>w\372K\017\264\350\334>\241!c\025\303\004\372>\311\263>^\205 \007?x\235\003dP\023)?\036\005\263\266x\0108?\370A\307m<\311=?\320\020\202o\332A7?\232n\347z\203\264,?\357\016\265\310\007\260\033?\256r\260\256\201\017\002?\310\003\310\024\201v\362>B\357\267\262\016\000\340>.\326\034#}}\310>\375\002\332\363\247\277\255>\013@S\364\n^\240>h&\033\201\014\016\233>\0077\025\356\331z\250>3c\277x\376\343\277>w\366t\237\277\201\325>3@u\025\364N\346>\353\023s\001\373\347\371>\302)\232;\240\251\024?[\230\003!t\2275?}*\000\216\300*;?\263\\*}\014\035<?\314(\022p\372\352\261>h\254\333<\204\023\237>\304\035OF\251!\214>\033\301\321\\\223\211\211>\320\374\346\256\002B\227>\033?\3146\024\177\253>\323\341{\026\324]\302>\0359!@\373_\335>0VS\2479\317\360>\"\023!\243t\033\004?\035\257\345>\005p\010?\314\n\320\234\250\021$?]\025\305\257/x}>;\313\331\264\235\300\220>\036@\254rn\200\246>\320\311\255:\357\362\262>\334\241\300\037\004o\315>\020\032\373\201}\335\346>\223+\020\334\263\200\376>cQ\221\256~\025 ?b\233\021\224\355%-?~a\275\366\237\014<?U\3551\345\351\261=?z\t\351]\263I4?t\010\236\254\010\362)?E)\312\312\247x\021?\322\344&*I)\001?\275\3505mZ_\342>QC\371o^\205\324>MZ\330\372\004<\273>\322\233\327_O\275\246>\212\232\347\234\360\227\233>\231\353\313*\353\024\241>\342Ag\267\221\361\264>\033\335\2528\013+\306>\251\356G\355~v\335>5\304\"`\0035\362>q\334\220\006c\217\013?f\243\214u\347\207)?\356\177\305\212\264\2006?O\207\201\305\002\243=?\001\026L\035r\3078?\313\024dul\247.?\257s\325\371\243\223\031?\211\356\246\021\321f\002?\267>\217\025^\177\354>\352ZN\202v@\327>\255S\345U\226*\310>\377\270\251\031\025`\257>`\343>f\036\367\236>\353zs\3202\030\233>\200.\341\006\261\357\255>\245\345-\377R\274\300>\270n\243)\234\240\325>\002\240\177\356\257\353\352>e\350=z1z\001?\302\021\264\223B]#?q_8T\363u1?=\325\362\r\315\233<?\337\247\264y_0=?\357\2242p\025\0314?\375\366\354\336\255A$?0\214\356\334l\211\022?M\006\273\003r\024\000?\020\264\000*\202\214\344>\355p\311\356\210X\320>\021\362\311\247\235\307\266>\367\362\274\017\366\330\246>\3000\201!\2575\233>XZ\346Dbd\241>\234\212=\362\tB\265>\304\332\372H\360e\312>p|\312\225\250\327\343>\r\374`8\340\\\365>\273\363zS\267= ?1\2117\254G\0040?.i\370#V\':?\357\345X]4\306=?\310/\017\301]\3209?\337\002\000!\001Q&?\366\3257\230)1\027?G\274\307\037\207\325\376>\370\376\315N\020\352\351>\251\213$u\310\356\324>d\030d\305l\037\301>G\367\340Ia\373\254>\330\213\315\277\212\264\236>[\241\t\331g7\234>H\334\227\"])\263>?\013 zv\006\276>\360x\013\314\324~\327>\300\233\273G\215\331\361>)\351y\332\261@\010?E\247X\235\222\204!?\203\267\r\305\375\3414?\317|G\202e;=?-\005\363\250k\327;?\253H\335Aw\243/?\235\034\025/\005\273\030?\362\0060\227\322y\007?;b\310\3344\341K>\330\222|,\"\337S>J\375/4\033On>sa\204\372\325\014\205>0>\3365\212\303\256>\277\270\340\212\231\'\304>,i\244>\337\237\343>\277j)V@\021\364>\342\244\254\200\325\313\020?\250\265\325\202\002\234#?\302\014\227\r\374\3407?\251\013\246\317\326\322G?i^g\353\202\016N?\266\021\337(OVH?w\320\326\365\317\2414?|u\265\036\314\n ?\336\243\227XH\243\005?Cfe\303\005\367\364>r\024\370\222K\033\325>l\202\236\343|\370\301>\331\024\0302\372+\247>\021\0045OW1\220>\3679\325\004\303\261w>\354\000\025\212\031-^>\201\337\247,a\227K>Hu\r\261W=P>!cpD\363\257e>_\234\035\003\203\220v>\223\274\217\210\271\037\240>\253\363\325\034\251<\276>Wh\21423O\323>\240\200y\203N\202\357>/\017\024\005\214p\001?\340x-\r\005\202\031? n\003\r\336v\316>\201-D\024\333\007\263>\326;G\325f\271\235>\020\033\351\341\356\"\223>\367\221\246\310\215\301\225>\226\212\t\022\362\316\252>\356\255%NS\372\262>5\371\276|\240\200\313>*\330K\371\267B\333>\276\221\230\262e\006\373>\331\002\327w>q\022?Y\231\031c\336\226!?\013\351T\034\366\2572?\270oS\035\253a@? \203]O+\311C?\255\337O\013q\020>?\010\223\210\304\251i*?\321E\211\325\244\263\035?\271\261\324\2276h\004?U\213\225\034\024\035\351>,\302e\360(\177\373>\211i\177\234\232\247\025?\025\275d\226\021\337&?!0\023n\t\3112?\014\244e\036^\353<?\234\233j\032BA9?Q\n\241$\313~0?\005\210\2118{\221!?2\036,\0300i\t?\004\356r\261\262\326\363>\223I\231A>\032\341>\253\001F[\005K\313>\372\323y\361}\"\261>N}\325\"4\032\247>N\332\364\221\221W\245>m,\307a\322\241\311>>GC\034\240\310\337>l\246\245\275\300\336\364>uo\252\205#\334\004?\350\031\254u!\177\033?\334\200_#\366\324-?\217\233\t\307\270\2109?\300\200\301\032d\n=?H\377J\222\234\2715?V\t\232\007r\241)?rx\363\276hq\025?O\375k\262\267\227\002?\365X\374\351w\201\347>\242\234&\334;\235\321>\001\'w\367\027\236\277>Q\346T\0136!\256>>\245\266\366\231\226\244>/\245f\035M\037\273>V\2674\300\223\344\324>\001\274\371\005\222i\351>!\236\307A\213\213\377> 3\004\005\326\353\024?\276\263\000\014\206f%?\200n\024\216?\2732?D\356\020\207\263\257<?K\'&nT7:?,\372\214\014\374(,?u\212Z\0043M\035?kV\275mG\206\r?Se\n\346\357\242\362>\376jo\337\023\367\340>\030\023\235\217\337\217>>\221,\237\203&\006@>\214E\033\271L\346S>\247\227n(\004<m>\324\r\362U\t\264\021?\031\361N\345[u\367>$ri\247\276o\205=\210\241\272\345xe\211=k%\201\320\232a\240=\350\235S\305\265\270\267=S\002V\001MH\311=sVL\220\362\314\344=\231\303C\317h?\371=\250\223Pt\001{\006>8\332p\221\244,%>\327}\0340\375\3406>\340\210\260j#QP>\t\227\306\246\311\337e>\370\216\243\347\312l\202>\277\335J\010+d\220>\221\010G~\304\255\246>]\005\025\3550F\271>\"\371F\275\361\304\323>\"\243\256\272\223(\356>u\300\\\333]\316\000?NNO\256\274F\036?\216\303O\262\023,2?\206\367\016\035\317q<?\212\263\224K\364\262;?\333Cb\001\30204?)\311\377o\202~\"?\037\367Q\006$&\r?f\341\223\'\222\345\371>\231;\212!\353f\345>\346\343,\033\274\330\317>\276\327,\202\\\323\274>\246/\366\256\347\216\244>\372r\333\020\300\362\232>\222\313\227\235 _\241>~\031\026\373\001\310\264>\302\366\373\206\375\232\322>V\036]\244\246\266\346>\366\271\223\242\032\020\363>\tF\033\340<\001\033?\327\337\004\233\362\353-?\3074P=1\3609?\324\332\214\234\344\307=?Qt\017\204\21735?K\325\2269\247\001*?^\245\260n+^\022?V\037\367K\215T\376>.R\223\217FG\357>\213\021q\303\326s\327>1&\232D\241{\302>.gQ\033\313\273\253>\372\001I(\376\254\237>\342\034\351\313\374\333\240>*Tul)\214\254>\3673\365qY\371\305>\275\321\025\341\354\312\336>e!\263\211\317\035\361>\342\345c\316FV\003?\201E\022\306t=&?\256\250\250\201\317+3?\201C4\253\334\217=?\333\334\367\332\356\201<?\201\020ll\215G1? \317\214}\005\253\033?\227\250\035\251\315\332\t?$[\021TP\023\364>T\363\220*@\227\332>p\255\326\267\210*\307>U&Y\0242L\263>\031J\266\025\251\360\242>\014\245\311\341\020\254\233>\202do\337=\317\245>\276\211\343mO\307\276>\021\004;\212XT\317>\005\310\303\267`\001\346>:t\223\260(\241\370>\2468\262=j\252 ?\020\003IDX\0060?\303\331O\037\033f;?[\217\205\020\326\361<?\3625v\3319\0334?-Eb\347\211=$?\256\333\260R>\023\r?&\353\370;qe\000?VwQ\371\237W\351>\274/>\022\343Z\323>\325@\027\203\313\260\267>\006ek\254\270k\247>\254\226\225\353\345\322\232>\205}\376\252\266M\236>\355\305\265\260z9\264>\271P\035\351\354\021\311>u\215C\225\372=\333>i\345:\372I\031\364><\013\237\305\251\372\t?\022N\t\264\227\205+?\362#\357XV\265\201=\322MUdvo\225=\253^\260[\314\242\261=\311\360p\230\243\322\302=\274d6f\303\265\333=\363\237\372\274b\233\362=}d\320\212~\313\365=\340\271\274\367~\327\004>\267\002\352J6\240!>\373\201.\376\313\0227>(<\250\307\263\363Q>0%\224\237\302Wd>H\'\351\370\323\362v>[\204\334-\202N\217>\224y#\222O\210\250>\235v\340\3330[\271>8\307G}\3307\320>\371\027rT\3458\353>\372\201\364\204x\241\373>\343\240\306!g\021\020?\003\027:{\353\014$?\031R<\002v[7?\013\322?r+\217=?\246L\324o\355/<?\272\317\266|D\374.?\226\257P~\327\033!?\025\275\260T}]\374>\342\3621|\230\336\342>]\00165uP\321>\317D\023\217\312&\300>.\355\360\330\257m\251>\321\224\313\002\340.\225>Rxa\250\361\035\220>w!\261\200\255Q\232>\241\274D%N\260\260>P\\;\307\"7\301>;\322j%\370\362\335>O\333\300\273\177\255\363>\014\014\241\006\362\r\014?Ie\330\337x\200\037?\357>U\2115\227+?\335\272\372\014\222\2739?\203\262\0065\313\261>?\271o\236G\311\0058?\361\265B\036;\r,?~KU\220\306\313\007?\200\247\230\030\346f\363>\362\033\277\223h\t\340>\341k\344\005\243\216\307>^i\022\310\007\361\265>w\347w\222\220\037\234>nv\210\307\343\266\217>\211\210\034\310\256\360\223>\3529_\247\253\300\244>c.h\031\254D\272>\023\206\323,\357\340\322>\030s\254$\266A\345>\233j\002\262\205\021\001?D$\205\'UH\026?|B;\260\332\031$?:\223\024\216\377\0064?\210\323\353|c2<?\223\202\203\302y7<?WE7\232\247\2471?fd\273cp\227#?\327\232s\235?\035\001?\345\314\010\2623A\347>T\222\214\202,\375\323>\266\273\013\317*>\301>\351K\326\260t,\253>\250\224\363\000\230\344\222>Z\264\313O\247\213\217>o|\317\205lW\232>eD\237\353\023E\256>\353\204\025\224\255\350\305>PG:2\030I\340>92\347\255j\n\360>\241\217\022P\263/\005?\317\024EP\262\263\034?\035.\374\376M\0031?\244d\337\256\344\2628?\307\371\243B/\253>?\260}\346O|\"8?\361\247\303\272\023\262*?\023\030\320\274\326\'\037?#WI\027;>\366>$\273\233\324\204r\340>\323\336\332DO\264\312>\355\254#\331\337\225\263>bytCmn\232>\345|\233Wy{\221>\326\2151\243DS\223>\331\234\210a)h\242>*v\r\263\305\324\267> \265\215%Cn\315>#\371\270\323\240\374\340>\265\232\363\222\304\024\364>6fUQL.\020?\213\"\341<\372\336#?\'H\031\203!\3211?8\202z\013\3122\327>5\342\246\031\375!\223=f\310\322s\331\364\252=\367\224\3311*\344\275=\345\205A\256\247\372\327=\035\010\204N\237l\345=\201\344p\n,\204\003>\207\324#\263\251\355\032>t\177dMO+.>\271D$\210\227\245@>\245\332\204\362 \035Z>B\346\032\022\221\276q>\006\034\337\337rk\202>\272T\235\300\355/\237>z\336\233\344O\010\264>m\302\324\'l\346\315>\232#\245\024-\315\334>\302G\366)\365q\363>Bv\2559\033\020\005?\271]\235\025D\002-?\274\np\017\236~7?\252\376%\r\273\266=?\355\215\230\303s\0017?\031\236\264m\003k1?KRj:q\263\030?\204|q\301U\371\n?P\276\346\356U\221\355>\266\206\260\257i\245\330>e\262\262\363;\226\303>\376\235\'\303\n\031\257>\302G\256\330\310~\236>m[\331\367Q\262\233>\266\375\211\233\330H\260>\370\234\332^i\270\277>\307ans\032\263\322>\177~M\032\027\311\355>\226\260A\003\331V\001?+|h\244\332T%?\023\037*irW2?\001L\212\242O`=?7\330\014\271\005\t=?\217R\216`IT0?\007\255\264\321&\275\"?\312\320P\325O\013\016?[\013\205\200\275\312\377>^3d\317\201\010\342>\263\261a:r\316\320>\254~Mj\206\365\271>\251v\365\357A\253\244>Q\036W\303GQ\233>w\376(\001\204\034\242>j\026Q\363\262\361\263>ss1\3721\001\321>\327L\243\233;@\344>M\202\326\356?\327\361>\244\214\210\270\013V ?\233\2243\240-L\'?m\266g\037bB9?J-vu7\305=?\336\360r\347\202\2114?\263+\342m\224\350)?\215b@\200\274s\031?=\\\227b(v\001?du<\250\250\002\350>\004\261\336\340\013J\324>\024\364\013\014\316%\277>\202\243\350~\362\032\255>XV\220r\017\211\234>m\325\200\223\372\273\237>\357\220\267X\254D\264>\216\256\234<Sl\302>\272\367\275\313\342\205\326>2bb\343\006\331\363>\367\022k\023\311\000\003?b\224\342\355\374\234\'?\214,\\\357\270\3744?\005\260\234\366\231\262=?\377\262\232Y\342%:?\343.\025\223XS0?\000\257d\230\342\t ?o\2365]9\302\014?\343g\010\026\204z\362>;\006\223\330\036l\337>\302?\241)\002\353\306>\232R\320p|f\261>\003{\376\217\202\341\236>\315 \207}\006\331\232>\354bo\257jl\244>\302-\337\023e\247\274>\367\336\014al\225\322>\023\207\234)\220\206\345>nd\227\227\227c\376>\316\013\257\213\300\024\"?\245\247\244`D\2420?:D\025\342\016\212<?\353\340Zp\342!=?\022\357\301C\366\3675?\272\337X\241\360)\"?\261b\275\244am\025?\3412\222\334\376%\367>\220\235\345\360\325\347\271>|\022\246\312\324\253\230>\rbv\213\020\034\214>\020\200e\305]Sg>\245\236\314\377\350\310Z>\223\263\372\353k\263@>\221\245\354\246\246\017/?\372{9\031W\001\032?h\203%\203\220S\002?\037[\367tA\331~=\021\333\2516|d\222=\020k-l\335\373\246=@Z\35156\t\306=\270aB\213\271\034\305=\274H\236`\353\304\324=\345+\331s\253:\360=\334\373]\341\277\005\006>\330rd(\275\205\">iT\234\006\320J6>\311i\004\306\213\217F>\007\203X\345\306\352`>\321\\\243\222\241\270v>\226\210\302\210\214n\210>\231\240L\245U\376\244>\r\365\231\336]\206\272>As\222\"\212\345\320>\000\372\\\0077\000\344>;\0135\232\2268\373>\033\036\213\313\003\314\023?\266\257\022`\255E#?\\\270\316>\324\3453?-W\326b\032\3569?9\367\217\227d\2234?\300U\023v\303F%?]\364\215\306\266\202\030?\2609\241,\231\246\377>5\246\204\213c\225\357>\020=\034\234\310\337\323>\016\021k\251\374^\274>\364>\221\302-}\251>\235W\232\376\264@\227>\373\202H+t1\223>\2767\262/\347\242\243>0\020\275V\246=\262>\001}\005\354\037!\316>\260\321\251<|\337\340>f@\221\037\276/\376>\301\246\213\227,U\t?fB2]\023\257\"?\207\275\016m X3?\345\343J\323\215\242:?\035*\242\347\236\3275?\215\3576\336Q\305(?\001\334\327\345\210:\031?\315o\\\324&\275\005?\346\305Q\026f>\356>\356\016\206\032(\014\325>2\314\203\343\021\264\301><\266\n&1\341\260>\337\351\\\026\260C\227>@\003\356\214\324\267\223>\333\3134\200\0021\234>}3\022\201\374F\266>\310R1\342\275K\310>\005%Vlvj\340>\351\034\361+\263\331\363>]\300\233\230\236-\005?\371\0057\302\000\031\034?\033s\260P$\327/?\235\033\225h(y<?Dz\"\276\020\220=?d\365\335ru\334*?\264\272\254A>\211\037?\312[\\I\356g\004?4\340{zr\225\365>\343\245\302\023\302\255\325>\0261\3407\007\"\305>\251Z\034Q\246\240\257>Nm\322\001\354\260\233>\306F\361\3542\032\223>\000/L\224\345\010\231>\224\030\2711\342\010\260>\315\2433j\251\202\306>\330\005\\\247\346(\341>\375\260\2479\366\333\354>L\226\342@\215\374\004?\210]~\266\352\313\035?n\352\016++\200.?\345\276;k\227\3579?Q\214\323\312yV>?[\350\302\372Q@0?(g\342i\337Q ?\030\0062\237\025\t\007?q\255\022\304\365\216\362>\274\261\236}A\302\336>\246[\025\027\211\030\307>\034cB\010\333T\265>\307)\014jy\312\240>b\320z\274\332\244\224>,@\2362W\362\232>?C\365\020\021\217\250>E\336f\366V\311\267>\345\213V\006\3540\312>g\022Q\031\355\256\340>\tn\223\016\020\002\372>Q\306\310\032\271e\014?w\r\366\263\3355\037?\020zh\311\334\2004?\321\331\272G&\";?\260\3001\252Ct<?\035*q2\003x4?l\307\334)\234\261\027?2\252\341?\307\372\002?\336=\355\022B\t\356>Cr3\005|z\325>z\2631[m\260\301>I\310p\223a\200\252>\3270\300:m\250\232>\013 n\225\340\263\220>\325\202g\201\274\027\230>\274\327\265\330\365s\251>C)\tzI\300\302>\0230\263\017\031\317\322>c\010Nxu\345\360>\226\315\235$\t\027\005?v\366$\303\007\202\023??\241\304\0335G*?\267\002\325\270\03486?\307Ew\352\273\211>?\364\244\266l\225\3657?\202\334B\341\004\002/?\313_\254\261\200?\n?\245\222[\356\277\273\363>\344\331\343\362\004\262\342>\310\032b\230V%\314>\226DH\346f\226\270>]\305\340t\036\212\240>\332Q\254\370\303{\222>n:\310\\\326]\222>\263\325p\213\"P\244>\007|\272O\207%\266>\305\001\261\375\032\216\322>PD\225\031y\212\346>\024\304\252\003\226]\000?\'r\233\204\236\243\021?\300 hj\372\350\"?R\352v\323\340\2550?Y\361[H`\354=?\254\'j\312d\206;?\205\263\375{\360G1?n5\017\367\267\262\024?p\014\261\026r>\372>\3371dM\014\037\353>\03342\330\364\314\321>\007\266\026W\316\330\302>i\314VW\300\371\255>w\010\201\300\201-\226>}\341\232p \230\220>Y\373S\356\034-\235>\020\315]\221\321M\252>@`,w\327]\303>w\3237\"\251\326\335>a\327\340t\227\323\361>\310\276\021\010\017\276\005?\265\002X\010\351\365\026?\224\353l\354}\277.?r\347\025\323&\3759?\360\265\300\204\023}=?\362\t>f}\2006?\001J\365\267\316\037+?L\374\"i@`\017?\205D\244P\250\\\366>\256GT\360\373\003\341>\300\366l\271\207\023\310>\326i\024\356\337@\262>\241p\356\214u%\234>\016\274\010\010r&\221>:\343\327\022\3250\226>\234z\200\350\323\225\247>\004C&\363\322f\272>V`\277(\332\331\326>\244\223\004-rU\351>H_\032j\372\226\004?\311\202e>\343\360\020?V\347\341h\213\330&?\316\n\274\257\037+4?\244\247\0222\217\316=?\222\261\333\266\207y;?4\201\370\267\r\2242?D\341:K\r\330\017?g\231.\023z8\375>\223\035:y\222\266\350>\214\222\357\2529\305\317>jD\204\024M\306\270>\3672\275\313=\326\247>\277\222\320\230;\317\224>\214\215\236A\267t\222>\221\214\222\177(v\242>z\270\225q\321M\265>\032U\233\3038 